{
  "elsen": 41145,
  "Ġdemanded": 29426,
  "éŃĶæ³ķ": 106083,
  "ì¡": 124235,
  "å¨ĵ": 120537,
  "ĠgÃ¶": 30185,
  "à¸£à¸²à¸Ħà¸²à¸ĸà¸¹à¸ģ": 138415,
  "å³¡": 101011,
  "Ð¸Ð¿": 47345,
  "ĠÄĳÃ¡": 129411,
  "WithEmailAndPassword": 84361,
  "-inc": 85619,
  "Ø¹ÙĦØ§ÙĤØ§Øª": 141308,
  "Been": 25102,
  "ĠsatÄ±n": 137747,
  "aybe": 49791,
  "/Register": 81269,
  "User": 1474,
  "ĠSail": 56995,
  "ĠgestiÃ³n": 138747,
  "Ġcomputer": 6366,
  "åĶ§": 119227,
  "ĠNhÃł": 129645,
  "Ġoutliers": 86663,
  "Ġspring": 10464,
  "åıĳçİ°äºĨ": 106546,
  "_scheduler": 53646,
  "ĠmÃ£o": 135069,
  "roc": 27687,
  "ĠwpÅĤyw": 132631,
  "éĹªåħī": 115328,
  "æµļ": 119179,
  "è·£": 121197,
  "Ġstrcmp": 24272,
  "ê¶ģ": 139604,
  "çĶ¢": 100589,
  "ãĤ¹ãĥĶãĥ¼ãĥī": 143016,
  ".update": 5317,
  "Ġimposes": 87281,
  "-loss": 76301,
  "Ġmuá»ĳn": 128491,
  "_blocks": 25201,
  "Ġ=\"\";Ċ": 98737,
  "ðŁıĶ": 148709,
  "omas": 22267,
  "ĠBOTH": 85489,
  "ResponseStatus": 92663,
  "ort": 371,
  "Ġrushes": 94222,
  "_ent": 27425,
  "Ġjaws": 81256,
  "Ġacne": 45805,
  "ĠWHITE": 42767,
  "çļĦåį±å®³": 112614,
  "ĠÑĥÑĩÐµÐ±": 134890,
  "ãģĬãĤĬ": 124720,
  "éĩįçĤ¹å·¥ä½ľ": 114119,
  "á»ķi": 97516,
  "ĠØ³ÙĪÙģ": 131959,
  "çĹĽèĭ¦": 104573,
  "ĠBew": 37210,
  "à¸ļà¸£à¸£à¸¢à¸²à¸ģà¸²à¸¨": 136085,
  "Ġprovisioning": 97056,
  "#######Ċ": 82024,
  "NodeType": 66137,
  "Ġag": 933,
  "íĺ": 34759,
  "$core": 33147,
  "Ġelucid": 96198,
  "ĠRouter": 10554,
  "rightness": 36630,
  "LENGTH": 65981,
  "ĠShelley": 90509,
  "Encrypt": 61520,
  "à¸Ĺà¸³à¹ĥà¸«à¹ī": 125084,
  "Ġdomestically": 97790,
  "ĠReward": 55800,
  "Ġtháº£o": 132972,
  "Colors": 13108,
  "Ġmole": 34651,
  "etxt": 88900,
  "ĠCreateMap": 89924,
  "à¸£à¸±à¸ļà¸Ľà¸£à¸°": 139170,
  "Ġdistance": 6010,
  "Ġ×ł×Ĵ×Ļ×©": 140897,
  "ĠCÃ´": 131249,
  "Ġgere": 66287,
  "ĠÐ¿ÑĢÐ¾Ð¸Ñģ": 136829,
  "lement": 986,
  "chars": 19255,
  "(bot": 50121,
  "ĠgÃ¼Ã§": 127305,
  "miss": 1831,
  "ĠSinn": 84579,
  "ĠMoves": 56599,
  "Ġthe": 279,
  "(cx": 45752,
  "inned": 20561,
  "ĠKasÄ±m": 135335,
  "ĠRedis": 34158,
  "pread": 20717,
  "ĠQuantity": 33523,
  "æ»«": 121305,
  "èįĴ": 101293,
  "_EQUALS": 68581,
  "×ķ×ķ×Ĳ": 134196,
  "ĠonResume": 61170,
  "éĶ«": 123199,
  "ĉĉĠĠ": 13544,
  ".valor": 73797,
  "êĻ³": 148753,
  "/dialog": 52446,
  "éĢļãĤĬ": 130413,
  "åĢ¾": 100544,
  "ources": 2360,
  "phone": 4844,
  "ĠPhon": 70324,
  ".member": 32346,
  "æĺ¥ç§ĭ": 109385,
  "Ġphilosophers": 60687,
  "AMPL": 66951,
  "uuid": 17128,
  "Ġrecruits": 55097,
  "Size": 1695,
  "ĠinputStream": 46456,
  "_Type": 13729,
  "_controller": 21600,
  "icking": 16272,
  "_light": 28663,
  "ourn": 3431,
  "æĸ°ä¸ļæĢģ": 111837,
  "×©×ķ×ŀ×¨": 137100,
  "ä¸įäºĨ": 101195,
  "ëĦ¼": 149435,
  "ĠĠĠĠčĊĠĠĠĠčĊ": 45432,
  "èįľ": 120032,
  "Ġ#(": 89166,
  "uments": 2831,
  "ifacts": 26401,
  "×Ĺ×©×ĳ": 126112,
  "ucose": 93597,
  "×Ľ×ł×¡×ª": 127954,
  "Ġlaboratory": 26594,
  "_fixture": 74409,
  "Ġbreakdown": 29985,
  "âłĢ": 74719,
  ":^": 37933,
  "ð¨º": 122725,
  "enerate": 13220,
  "Ġemerged": 21992,
  "Ġcircle": 12671,
  "bomb": 78344,
  "_UTIL": 49904,
  "ĠWolff": 95145,
  "(util": 67811,
  "èĸĦèĨľ": 114920,
  "é½¡": 115003,
  "ĠMcMaster": 99042,
  "PRINT": 24372,
  "ĠÑģÐ¼Ð¾Ð³": 136406,
  "ļ": 248,
  "ØªØŃÙĥÙħ": 139805,
  "ĠSpringApplication": 91751,
  "Ġinventions": 84049,
  "ĠClient": 8423,
  "ĠInstalling": 79800,
  "Ġrefinery": 93634,
  "nett": 82724,
  ".SetValue": 42726,
  "ĠLocker": 93978,
  "*=": 40008,
  "æ·Ļ": 120786,
  "æīĵæŀ¶": 109588,
  "âİ¥": 146803,
  "Ġscrollbar": 79655,
  "Ġ×ŀ×Ĳ×ķ×ĵ": 128576,
  "èĴ¡": 121136,
  "é»ĳé¾Ļ": 102950,
  "ãģ£ãģ¦ãģĬãĤĬãģ¾ãģĻ": 140588,
  "ß¨": 148047,
  "ĠArb": 86887,
  ",and": 50426,
  "ĉConsole": 41276,
  "å¤©ç©º": 101916,
  "approximately": 96736,
  ".curve": 95154,
  ":])Ċ": 43057,
  "ÙĪØµ": 125155,
  "éĺ½": 122262,
  "che": 1528,
  "×Ļ×ĵ×ķ×¢": 132827,
  "çļĦåĸľçĪ±": 110301,
  "ĠCannabis": 48565,
  ";base": 81860,
  "ĉrb": 85589,
  "-No": 97976,
  "ĠEllie": 88261,
  "(pDX": 94023,
  "yun": 42420,
  "å¯Ł": 99400,
  "à¸¢": 34509,
  "ableView": 7938,
  "ĠCouch": 61128,
  "ĠÐĹ": 52577,
  "Ġ×Ķ×Ļ×Ķ": 126215,
  "ĠBoston": 10196,
  "mh": 51916,
  "ĠrÃ©alisÃ©": 137883,
  "ĠLighting": 44523,
  "Ġespa": 35611,
  "Ġpsychological": 23187,
  "Ġcabbage": 73773,
  "ï§ĥ": 149820,
  "à¤¾": 23868,
  "<s>": 128245,
  "ĠÐ¸Ð³ÑĢÐ¾Ðº": 134633,
  "_Result": 49596,
  "ĠVentura": 84654,
  "ĠErf": 41663,
  "\"If": 26708,
  "èĺĳèıĩ": 114231,
  "Ġgrieving": 90744,
  "âĤĬ": 148311,
  "ĠZero": 18306,
  "thic": 81564,
  "Ġpassage": 21085,
  "Also": 13394,
  "ĠOU": 62835,
  "Å¼Äħ": 130706,
  "ä¸įå®Į": 110977,
  "ç®ħ": 121455,
  "Ġaos": 42814,
  "ĠBenz": 77542,
  ".php": 2296,
  "ĠBasement": 92043,
  "Ġmeget": 88625,
  "Ġ×ł×Ľ×ķ×Ł": 131348,
  "Åµ": 147668,
  "Ð»ÐµÐ½Ð¸Ñı": 61676,
  "\\v": 72659,
  ",target": 68522,
  "Ġrebate": 89946,
  "cent": 1168,
  "ĠAuÃŁen": 142791,
  "éģĹæĨ¾": 106915,
  "ãģĹãĤĪãģĨãģ¨": 138553,
  "(editor": 56964,
  "/vnd": 42701,
  "UAL": 16383,
  "ĠShortly": 66487,
  "ä¿¡æīĺ": 106295,
  "æĹ©ãģĦ": 140154,
  "/python": 23266,
  ":max": 82494,
  "mod": 2593,
  "InMillis": 78634,
  "EndTime": 55833,
  "kc": 31378,
  "×ª×§×©×¨": 139972,
  "Ø§Ø¦": 123829,
  "TableCell": 18426,
  "Ġspear": 40863,
  "CNN": 55455,
  "ĠÙĪØ§ÙĦ": 124072,
  "ActiveSheet": 43371,
  "ĠAccessories": 39719,
  ".urls": 20945,
  "edly": 52323,
  "Quarter": 86608,
  "×ŀ×¤×ķ": 137053,
  "Ġgrands": 93427,
  "ĠBMW": 29764,
  "INSERT": 12698,
  "Ġmest": 60013,
  "/String": 36264,
  "ĠPeach": 63595,
  "ĠAutomated": 94723,
  "Ġiota": 81910,
  "Ġspreads": 42553,
  ".styleable": 72407,
  "ibe": 23549,
  "ÐºÐ°Ð¼Ð¸": 129761,
  "sci": 53827,
  "Coordinates": 43876,
  "ĠpaÅº": 138111,
  "ĠLyft": 84439,
  "ĠapiKey": 44924,
  "\">'Ċ": 74897,
  "ORMAT": 98084,
  "Rooms": 58259,
  "Ġhott": 31522,
  "oauth": 34363,
  "ML": 2668,
  "ØŃØ³Ø¨": 129523,
  "è¶ħå¸Ĥ": 104631,
  "ĠLI": 7555,
  "ĠëĮĢíķľ": 128605,
  "é¬": 99439,
  "åģļ": 99190,
  "æĺ´": 120110,
  "Minute": 55193,
  "è¯Ĺ": 100045,
  "ãģ¤ãģª": 134141,
  "ä¼¸æīĭ": 108741,
  "Ġrelat": 90803,
  "Ø±Ø£": 129424,
  "æĬĺç£¨": 110844,
  "uide": 34705,
  "Ġtranscripts": 60312,
  "buy": 19783,
  "Ġbands": 20892,
  "è®½åĪº": 115469,
  "reet": 3744,
  "Ġ×¤×¨×ĺ×Ļ×ķ×ª": 137588,
  "éĢĢå¸Ĥ": 116229,
  "ä¹Łä¸į": 99744,
  "reviews": 39475,
  "æģ°å¥½": 113573,
  "Ġphysics": 21321,
  "Ġëĭ¤ìĭľ": 131170,
  "èĪ¬çļĦ": 106148,
  "Rand": 56124,
  "å¯º": 101277,
  "recommended": 85347,
  "çļĦåħ´è¶£": 110257,
  "ä¸ºä»£è¡¨": 108924,
  "aver": 7255,
  "ĠINA": 96299,
  "×ķ×§×¨": 125979,
  "OLDER": 24755,
  "ALLE": 46861,
  "(preg": 73582,
  "Ultimately": 66243,
  ".Template": 52530,
  "å¾ĳ": 119061,
  "Ġtribute": 34391,
  "yssey": 53247,
  "guard": 26098,
  "èĥĸ": 101484,
  "ĠnewPosition": 90899,
  "%c": 53139,
  "ĠPeek": 96587,
  ".complete": 42928,
  "å°ĳä¸įäºĨ": 116404,
  "ĠYM": 84445,
  ")).Ċ": 39467,
  "charges": 62299,
  "iative": 53579,
  "ĠTI": 38137,
  "ĠAlign": 49472,
  "ypsum": 67626,
  "à¸¢à¹Ī": 128204,
  "licant": 35237,
  "ÑĩÑĤÐ¾": 137806,
  "ê¹ĮìļĶ": 138965,
  "Ø§Ø±Ø©": 124226,
  "Ġarmies": 46883,
  "ç°ĸ": 121906,
  "Ġ--------------------------------------------------------------------------Ċ": 97942,
  "éľĢæ±Ĥ": 100354,
  "ĠSidney": 75896,
  "genome": 87945,
  "ë¹½": 145450,
  "Ġclaiming": 20409,
  "ĠVolvo": 67252,
  "CHILD": 99119,
  "ê¸°ìĹħ": 131754,
  "ĊĠĠĠĠĊĠĠĠĠĊ": 63477,
  "ĠExpanded": 39237,
  "_sink": 51567,
  "åĭĺæİ¢": 117689,
  ".io": 4245,
  ".renderer": 40152,
  "ABLE": 3494,
  "beam": 53871,
  "íĥģ": 133376,
  "Ġá»¦y": 142394,
  "ãģĿãĤĮãģĮ": 132146,
  "à¸ķà¸£à¸ĩ": 129220,
  "hest": 6402,
  "Ġmimic": 55359,
  ".walk": 51394,
  "impact": 57300,
  "Ġpropor": 70908,
  "è´¯ç©¿": 108384,
  "*******": 39038,
  ")!": 41295,
  "è½¿è½¦": 107105,
  "cdnjs": 38762,
  "(class": 21956,
  "Ġdiscuss": 4263,
  ">Last": 95376,
  "Ġmama": 56164,
  "íŀ": 124222,
  "ĠUnauthorized": 63102,
  "_fb": 50796,
  "Ġchá»©": 127306,
  "_cycles": 68970,
  "Ġexperimental": 22000,
  "ĠUIImageView": 28968,
  "ìĩ³": 146645,
  "Ġ×Ľ×Ĳ×©×¨": 129004,
  "Ġ'{$": 44600,
  "RK": 77020,
  "#undef": 19872,
  "ëĥł": 146194,
  "nota": 67217,
  "ventions": 30659,
  "è§ĦèĮĥåĮĸ": 108142,
  "Snapshot": 15009,
  "Mining": 96412,
  "Ġê·¸ëŁ¬": 125261,
  "Ġcollapses": 86358,
  "Ġnettsteder": 43732,
  "_MAIL": 65082,
  "ĠMM": 21665,
  "Ġliters": 92866,
  "ìºĲ": 142592,
  "ĠSlug": 93613,
  "ĠLets": 57066,
  "Coin": 41180,
  "æįĲæ¬¾": 108557,
  ".cmd": 25724,
  "Cfg": 42467,
  "æ´»åĬ¨": 99600,
  "ç²¾ç¥ŀçĹħ": 116330,
  "andard": 7648,
  "Ġtej": 61980,
  "Ġ/////": 64011,
  "æŁ´çº³": 117945,
  "lÄ±klar": 135388,
  "anyak": 50303,
  "Ä±lÄ±": 52171,
  "Ġ×ŀ×¢×¨×Ľ×ª": 131238,
  "cy": 11130,
  "ĠÙĦØ¨ÙĨØ§ÙĨ": 133093,
  "ĠheiÃŁt": 140385,
  "Ġalgebra": 46876,
  "é¢Ĭ": 103848,
  "ìĻģ": 145540,
  "_NUM": 9631,
  "/graph": 72177,
  "ä¸Ģéĺµ": 105218,
  "_taken": 72933,
  "ç·¨": 109672,
  "Ġoss": 30059,
  "Ġked": 79042,
  "Ġsumm": 34259,
  "ĠÐ±Ð¾Ð»ÑĮÑĪÐ¸Ð¼": 143936,
  "ĠAPPLE": 90336,
  "Ġresurrection": 61432,
  "usi": 52813,
  "Ġworries": 37045,
  "/tab": 78859,
  "Ġej": 19279,
  "äºļé©¬éĢĬ": 109355,
  "æ¦ĸ": 121362,
  "æ»ķ": 113473,
  "ç¾İæĸ¹": 114885,
  "ĠStructure": 28596,
  "ÙĤÙĬÙĤÙĬ": 127998,
  "(notification": 54880,
  "ĠWEEK": 57429,
  "Court": 75774,
  "ä¿¸": 120425,
  "ì£¼ë¯¼": 138533,
  "çİĽ": 101382,
  "á´Ħ": 147182,
  "ĠÐ±Ð¾Ð»ÑĮÑĪÐµ": 129258,
  "×Ļ×ł×ķ": 124629,
  "âĢĭ": 15692,
  "ĉĉĠĠĠĠĠĠ": 28666,
  "_eth": 57757,
  ":red": 41584,
  "ĉproduct": 69288,
  "æ´¾é©»": 114810,
  "reserved": 51102,
  "Ġrq": 60602,
  "Ġä¿®æĶ¹": 63071,
  "Ġflirt": 52630,
  ",/": 87682,
  "ĠtartÄ±ÅŁma": 142125,
  "pain": 91624,
  "Ġconnector": 26989,
  "åħ±åĪĽ": 115152,
  "(interp": 75042,
  "ĉsign": 69054,
  "ĠÙĦÙħØ§Ø°Ø§": 138867,
  "Ð»Ð¾": 38765,
  "ĠQuando": 91666,
  "nge": 84490,
  "<IM": 94205,
  "ĠMouse": 17721,
  "èİ«åĲįåħ¶": 115134,
  "Îµ": 30143,
  "Ġ(âĪ": 94825,
  "_geom": 72987,
  "áŀĵ": 146160,
  "PROFILE": 77229,
  "åĲĪåĲĮ": 101937,
  "éĺ¿æĭīä¼¯": 111946,
  "ĠrÆ°á»£u": 136288,
  "éĿłçĿĢ": 112383,
  "âĩĢ": 148797,
  "ĠUIBar": 50785,
  "Ġtimes": 3039,
  "íģĲ": 144286,
  "Ġhijo": 80045,
  "ĠGU": 45272,
  "Ġaccessing": 31788,
  "Ġhare": 94918,
  "ibo": 28846,
  ".getJSONArray": 84367,
  "_fp": 34160,
  "UTH": 9153,
  "Ġulong": 41991,
  "à¸ģà¸§à¹Īà¸²": 125053,
  "peare": 36552,
  "Non": 8121,
  "Ġconcatenated": 97534,
  "onyms": 45603,
  "Ġ(\"\\": 51658,
  "Ġdice": 22120,
  "Ġ);Ċ": 1439,
  "reuse": 53049,
  "(identity": 86843,
  "ĠRol": 30976,
  "Ã«n": 87555,
  "èĬ³é¦Ļ": 118931,
  "ĠStrand": 77302,
  "anje": 84957,
  "hÃ¤user": 143492,
  "ubic": 41181,
  "×Ļ×ķ×ł×Ļ": 131305,
  "à¹Ĥà¸«": 135017,
  "ç¶²åıĭ": 114466,
  "è¿´": 117813,
  "Ġclassifications": 95671,
  "é¼»": 102228,
  "Ġrant": 56843,
  "ĠIMapper": 90499,
  "æ¨¡åħ·": 108517,
  "//-": 61463,
  "ĠktÃ³rej": 131252,
  "<form": 11608,
  "â¤´": 146278,
  "ĠÐ³Ð»": 132853,
  "ĠCron": 55817,
  ".nativeElement": 48829,
  "ÙħØ³Ø£ÙĦØ©": 139682,
  "tle": 11239,
  "htags": 25285,
  "ãģ¸": 126263,
  "imestamp": 4702,
  "Replacement": 68569,
  ".rgb": 59189,
  "Kay": 66317,
  "lichen": 21673,
  "ç¿Į": 120824,
  "ãĤĪãĤĬãĤĤ": 130464,
  "FirstResponder": 52170,
  "Ġchoir": 70608,
  "acity": 4018,
  "$view": 76207,
  "â¨¯": 149064,
  "cher": 9034,
  "Ġinertia": 77452,
  ".future": 97693,
  "åĽ½éĻħåĲĪä½ľ": 116151,
  "ï¥Ń": 148193,
  "éĢĥç¦»": 114150,
  "ĠHÆ°á»Ľng": 136745,
  "ucket": 11152,
  "[...,": 71894,
  "ĠSOC": 37650,
  "pillar": 76502,
  "/helper": 79285,
  ".used": 83202,
  "à¸Ĺà¸²à¸Ļ": 126885,
  "ĠÑĥÐ¿ÑĢÐ°Ð²Ð»ÐµÐ½Ð¸Ñı": 135861,
  "ĠPainting": 54043,
  "à¹Ģà¸Ńà¸ĩ": 124862,
  "ITY": 3333,
  "ÑĥÑģ": 43055,
  "_pw": 60181,
  "<Book": 58037,
  "ĠØ§ÙĦÙħÙĨØªØ¯Ùī": 137875,
  "Los": 29596,
  "Ġmemorandum": 81658,
  "ãģ®ãģ§ãģĻ": 128774,
  "xF": 9770,
  "éĹľæ³¨": 118188,
  "ĠAlert": 13975,
  "ð¬Ł": 103909,
  "iture": 9280,
  "Ġuncont": 69993,
  "ĠBrow": 28377,
  "GY": 41470,
  "à¦ı": 149525,
  "ĠÑĢ": 18108,
  "Ð¸Ð½ÑĦÐµÐºÑĨÐ¸": 143744,
  "\\AppData": 94943,
  "ibilidad": 56235,
  "Ø¶ÙĦ": 137126,
  "nel": 8138,
  "æĬĹçĶŁç´ł": 115340,
  "unsch": 80791,
  "ĠCountries": 53737,
  "_types": 9763,
  "ĠHide": 25590,
  "ĠBroadcom": 95917,
  ",default": 87696,
  "\"));čĊčĊ": 69938,
  "è¡ĮæĶ¿åĮº": 112700,
  "è®ĵæĪĳ": 113601,
  "Ġmassages": 63179,
  "-template": 33409,
  "ä¸įçĶ±å¾Ĺ": 113235,
  "/editor": 75806,
  ".Options": 22179,
  "çĮķ": 120749,
  "Ġmild": 23034,
  "Ġprosec": 12297,
  "ĠRaiders": 42036,
  "Ġpress": 3493,
  "command": 5631,
  "MAKE": 47082,
  "climate": 93774,
  "ĠìľĦìĽĲ": 143128,
  "Ġperseverance": 98741,
  "ĠToledo": 72277,
  "ï¬ģ": 144300,
  "Ġliterary": 31365,
  "ismatch": 24976,
  "choice": 11746,
  "ĠBrooke": 78461,
  "[port": 96485,
  "Ø¯Øª": 131922,
  "Ġcocktail": 39910,
  ".assertIsInstance": 83930,
  "Ġcorporations": 24346,
  "Ġdigit": 15723,
  "ĠImportError": 54065,
  "à¹Ħà¸Łà¸Łà¹īà¸²": 132811,
  "éĤ°": 119785,
  "Ã©lÃ©": 28882,
  "Ġbacteria": 23157,
  "Ġ\"\"){Ċ": 50760,
  "Ġbows": 81465,
  "Ġarsenal": 56931,
  "ĠÐ´ÐµÐ»Ð°": 129691,
  "prepared": 60112,
  "ä¸įäºĨè§£": 112332,
  "ACES": 52081,
  "MENTS": 28763,
  "-server": 26300,
  "ĠHtmlWebpackPlugin": 92415,
  "Ġduy": 141839,
  "WA": 26388,
  "GO": 15513,
  "Attached": 65987,
  "ĠLTC": 95939,
  "ĠPolÃŃtica": 139366,
  "íĿ°": 144701,
  "Ġters": 87630,
  "åİŁåĽłæĺ¯": 107711,
  "uite": 9302,
  "ĠAsync": 21433,
  "çŃĶ": 99590,
  "à¸Ļà¹īà¸³": 125016,
  "sÄ±z": 128894,
  "ĠØ§ÙĦØ«Ø§ÙĨÙĬ": 130277,
  "åĮĢ": 102912,
  "ðŁĶ¨": 146606,
  "(ChatColor": 90241,
  "unik": 70449,
  "ï¸¶": 146165,
  "ĠsendMessage": 52358,
  "åĪºå®¢": 118680,
  "ä¸īå¤©": 106635,
  "endtime": 90861,
  "ĠÐ·Ð°ÑıÐ²": 128104,
  "èīŁ": 121993,
  "ĠAuto": 8979,
  "_TEXTURE": 17208,
  "Ûģ": 145016,
  "âŁ·": 149684,
  "filtr": 84746,
  "_mean": 16933,
  "ĠisConnected": 98796,
  "Ġfloods": 60172,
  "å°§": 111599,
  "Ġstealth": 46965,
  "ĠÐ¿ÑĢÐ¾ÑĦÐµÑģÑģÐ¸Ð¾Ð½Ð°": 134391,
  "èĢ°": 123759,
  "Ġtrouver": 45424,
  "ĠTmin": 67423,
  "Ġsneak": 44164,
  "ìĿ´ë©°": 136262,
  ".Pull": 97357,
  "Ġvf": 58454,
  "ÑģÑĭ": 56219,
  "anno": 21552,
  "}];Ċ": 75053,
  "Ġï": 32495,
  "Ġsilenced": 91681,
  "Ġstares": 94402,
  "ĠMah": 16171,
  "ĠvÃ£o": 136622,
  "åıķ": 122378,
  "*b": 33279,
  "ĠIsValid": 70647,
  "ĠKeyError": 38094,
  "'\"Ċ": 41165,
  "à¸Ħà¸§à¸²à¸¡à¸£à¸¹à¹ī": 132267,
  "Hardware": 66862,
  "ideographic": 94007,
  "Ġhops": 58118,
  "âĹ": 40732,
  "Ġ×ĳ×ł×Ļ": 126466,
  "Ġcáº¥u": 133795,
  "(My": 37485,
  "-save": 48553,
  "Officers": 81518,
  "å¥½ä¸įå¥½": 108702,
  "ĠAshton": 86618,
  "ĠgerÃ§ekten": 138837,
  "Ġ};Ċ": 2605,
  "ĠZus": 58485,
  "Wi": 58028,
  "Ġ?\";Ċ": 64253,
  "æ°ļ": 119717,
  "Ø£Ø³Ø¨": 133878,
  "Ġdifferences": 11799,
  "atan": 16225,
  "ĠMOT": 45847,
  "produto": 66195,
  "Ġsmelling": 96003,
  "åĨħãģ®": 135945,
  "ÙĥØªØ±ÙĪÙĨÙĬ": 142150,
  "ìĤ»": 149764,
  "Ġ×Ĺ×ľ×ķ": 136397,
  "ĠQuit": 53552,
  "åĩłå¤©": 101437,
  "(Float": 57178,
  "à¸¦": 147829,
  "/article": 38181,
  "VS": 26050,
  "èŃ¦åĳĬ": 106319,
  "ĠÐĴÐ¾ÑĤ": 134948,
  "Ġbarn": 32319,
  "ĠmÃłu": 128865,
  "allon": 92414,
  "...\"Ċ": 30438,
  "_REGION": 39179,
  "à¹Ħà¸Ł": 125216,
  "Ġbackstage": 89725,
  "ĠFusion": 42237,
  "bable": 59051,
  "Ġundo": 28721,
  "_CLEAR": 39280,
  "ĠBac": 68296,
  "Loader": 9181,
  "Ġobservable": 39535,
  "à¹Ģà¸«à¸¥à¸·à¸Ńà¸ĩ": 141889,
  "Ġ--------------------------------------------------------------------------------": 39373,
  "(Display": 77515,
  "uards": 54608,
  "å·¦æīĭ": 110651,
  ".bn": 60862,
  "Ġmamm": 34941,
  "æĹ¢æľī": 107203,
  "isode": 6549,
  "heets": 20306,
  "Ġwatched": 15384,
  "Disney": 71665,
  "Äįe": 92486,
  "åİŁæĸĩ": 103283,
  "Ġlaboratories": 69660,
  "Ġ')'": 79375,
  "é»ĳé¾Ļæ±Łçľģ": 111459,
  "omal": 52811,
  "Ġquantitative": 46516,
  ">>,": 81360,
  "ĠLaboratory": 31084,
  "anie": 19151,
  "Britain": 90738,
  ".spinner": 73680,
  "ĠÐ¿Ð¾ÑįÑĤÐ¾Ð¼Ñĥ": 131603,
  "Ġcavern": 75204,
  "æĸ°éĹ»ç½ĳ": 105094,
  "Ġcontention": 51140,
  "ĠMitch": 22586,
  "ĠQuint": 50699,
  "åĽĽä¸ªèĩªä¿¡": 117404,
  "Úķ": 146569,
  "å¯Ĩåº¦": 106651,
  "æµ·é²ľ": 109692,
  "\"x": 65438,
  ".depth": 40974,
  ".VERTICAL": 65282,
  ".ends": 25932,
  "ancies": 31637,
  "ĠEnc": 10751,
  "à¬": 124593,
  "ãģ¨ãģĦãģĨãĤĤãģ®": 137401,
  "ymce": 68979,
  "ÐĲ": 36155,
  "ç»µ": 101733,
  "lei": 62785,
  "å°ıåº·ç¤¾ä¼ļ": 112562,
  "é¸½": 112582,
  "Ġnatur": 14478,
  "shine": 30238,
  "ĠĠĠĠĠĠĠĠĠĠĠĠĠĠĠĠĠĠĠĠĠĠĠĠĠĠĠĠĠĠĠĠĠĠĠĠĠĠĠĠĠĠĠĠĠĠĠĠĠĠĠĠ": 24348,
  "inq": 5885,
  "ÐºÐ»ÑİÑĩÐ°": 133351,
  "on": 263,
  "mitter": 16126,
  "ocking": 70091,
  "This": 1986,
  "tel": 22924,
  "ĠØ§ÙĦÙĤØ·Ø§Ø¹": 134849,
  "athers": 19030,
  "sterol": 32182,
  "ĠgetById": 81502,
  "×Ĺ×ķ×ª": 125124,
  "à¸Ħà¸¸à¸¢": 133953,
  "ĠEnables": 76316,
  "Ġrenamed": 27280,
  "å®Įç»ĵ": 118498,
  ".config": 5423,
  "Ġmoistur": 53802,
  "Ġ×ĳ×Ķ×Ŀ": 130586,
  "(vol": 98155,
  "æ³Ĥ": 122352,
  "Ġ?ĊĊ": 23754,
  "div": 611,
  "ĠLate": 35831,
  "_CORE": 31310,
  "_td": 57051,
  "æ£ĭçīĮæ¸¸æĪı": 110920,
  "âĢĶwho": 83841,
  "äĹ": 101033,
  "Ġprovoke": 71993,
  "ĠToilet": 81894,
  "(nullptr": 28325,
  "Picker": 10945,
  "åŃ¤": 100548,
  "aad": 86629,
  "ãģĹãģ¦ãģıãĤĮ": 127493,
  "äº²": 99396,
  "ĠPROFITS": 28224,
  "Unchecked": 96498,
  "ĠtÃłn": 138878,
  ",body": 94378,
  "/high": 58135,
  "Ġboys": 13007,
  "ĉgo": 30680,
  "ĠMontgomery": 43025,
  "ãĤ¦ãĤ©ãĥ¼": 142159,
  "ä¸ªçĻ¾åĪĨ": 106942,
  "èŃ°": 101791,
  "player": 3434,
  "ä¸ºä¹ĭ": 110624,
  "Ġpaw": 76838,
  "ä½ıå®¿": 106285,
  "Ġdesigner": 14692,
  "')):Ċ": 73964,
  "owany": 94791,
  "Ġcss": 15877,
  "çĸĹ": 99527,
  "åĬłåī§": 108854,
  "Ġcameo": 94056,
  "ĠgetResources": 58145,
  "ä¨º": 150812,
  "Ø¥ØµØ¯Ø§Ø±": 138769,
  "çĥ¯": 103771,
  "Ġsynd": 21307,
  "came": 6014,
  "ð¤": 101877,
  "FLOAT": 50915,
  "Late": 61457,
  "eventType": 94066,
  "Ġcashier": 90355,
  "(mouse": 52154,
  "OrderId": 62101,
  "Ġbroadcaster": 59883,
  "ðĿĺł": 149166,
  "ĉĉĠĠĠĠ": 18445,
  "ðĿĳ®": 149871,
  "cv": 13122,
  "è£Ĥç¼Ŀ": 115717,
  "ĠGetter": 56130,
  "åĪĪ": 119546,
  "is": 285,
  "Ġtableau": 56134,
  "ðŁİĳ": 151387,
  "UserID": 36899,
  ".SetInt": 84725,
  "Ġpopped": 42233,
  "å¿ĥæĢģ": 106479,
  "Ã¤ch": 31573,
  ".'.$": 66389,
  "âĤ¨": 146534,
  "åĢĴåľ¨": 118556,
  "Ð¾Ð¾ÑĢ": 139780,
  "ĠÐ´ÑĢÑĥÐ·ÑĮÑı": 143439,
  "ĠkÃ¥": 78724,
  "Ġexploit": 32194,
  "Yeah": 23336,
  "Ġfullscreen": 56927,
  "ìĤ¬": 55054,
  "olidays": 19891,
  "udos": 45079,
  "âķĽ": 148178,
  "×Ļ×Ļ×ĺ": 134982,
  "Ã¶rt": 51817,
  "áħ©": 147366,
  "à¸ķà¸²à¸£": 141794,
  "ĠSlip": 58532,
  "ä¹łè¿ĳå¹³": 100852,
  "(router": 61210,
  "Ġspots": 18773,
  "ĠMenuItem": 31274,
  "æ¹£": 123097,
  "Ġsuccessfully": 7790,
  "ç¶ĵå¸¸": 113279,
  "Ġescort": 6155,
  "Ġchop": 46994,
  "enumer": 39501,
  "ĠÐ²ÑĭÐ¿Ð¾Ð»Ð½": 98296,
  "åĵı": 120135,
  "Ġsterile": 81643,
  "çľŁæĥħ": 112274,
  "CCI": 85267,
  "ĠSimilarly": 34239,
  "åıĮèħ¿": 116800,
  "ĠtÃ¤glich": 140729,
  "ëŃı": 147167,
  "ittings": 52259,
  "Ġsoar": 98465,
  "undle": 4206,
  "ç¹¼çºĮ": 109365,
  "ðŁįĮ": 146003,
  "ĠFif": 18502,
  "HERE": 4575,
  "çŁ¥éģĵèĩªå·±": 109339,
  "============": 10399,
  "èľĥ": 121159,
  "ĠBeverly": 57674,
  "ÑĥÑħ": 125951,
  "ĠÑģÐºÐ¾ÑĢÐ¾": 138366,
  "Ġtreatments": 22183,
  "Ġdru": 142231,
  "ç¾ļ": 119121,
  "nested": 59271,
  "Ġpredicates": 80027,
  "æĪĺå£«": 100853,
  ".pull": 83272,
  "ĠØ§ÙĦÙħØ¹": 129200,
  "Ġ×¢×¦×ŀ": 139608,
  "à¹Ģà¸Īà¹īà¸²à¸«à¸Ļà¹īà¸²à¸Ĺà¸µà¹Ī": 132742,
  "è£ħéħį": 103581,
  "leon": 79398,
  "ĠStrings": 41651,
  "âĢľThis": 30278,
  "unks": 15296,
  "æĭ¿åĪ°": 104981,
  "Ġdeployment": 23172,
  "Vol": 36361,
  "æŃ¼": 111594,
  "ression": 11185,
  "åĩĨåħ¥": 110150,
  "pf": 15897,
  "ĠWade": 42882,
  "_OPER": 27205,
  ".Generated": 42485,
  "ragon": 55150,
  "×ª×Ĺ×ķ×ŀ×Ļ": 135104,
  "æįŁ": 99644,
  "Ġê°ľìĿ¸ìłķë³´": 130096,
  "Ġnods": 82659,
  "æľĢéĩįè¦ģçļĦ": 104509,
  "-context": 63633,
  "æĹĭè½¬": 108215,
  "éĹľ": 99868,
  "èľĺèĽĽ": 111830,
  "Inf": 19433,
  "DataStream": 88062,
  "æ¶ħ": 112999,
  "Ġtog": 13144,
  "Ġfrontline": 96001,
  "Ġattractive": 18879,
  "è¡Įæĥħ": 104454,
  "ĠmÃ©": 31018,
  "çĻ¾åº¦": 104376,
  ".Enter": 52267,
  "åľ°è´¨": 107112,
  "Liv": 95554,
  ".getIndex": 75897,
  "ĠìĿ¼": 83556,
  "My": 5050,
  "([\"": 19065,
  "èĪĨè®º": 107438,
  "ĠalignSelf": 67578,
  "(rd": 75246,
  "åĲĪä¸Ģ": 108410,
  "ĠEMC": 73704,
  "_Msg": 90653,
  "ĠisLoading": 33662,
  "_epsilon": 98983,
  "stocks": 68027,
  "Ġlane": 21272,
  "ĉonClick": 91374,
  "äºĭãĤĴ": 127581,
  "å®ĪæĬ¤": 106446,
  "âĢ¦âĢĿ": 50179,
  "ĠuseContext": 34652,
  "å½¤": 109827,
  "aisal": 91020,
  "-leading": 68375,
  "_matched": 93900,
  "Damage": 24261,
  "é±½": 122675,
  "orias": 67263,
  "ĠÐ·Ð°ÑıÐ²Ð¸Ð»": 140009,
  "ĠOld": 10621,
  "Ð¸ÑĨÑĭ": 133736,
  "Ġstere": 22646,
  "ÑĩÐ¸ÑĤ": 90253,
  "Ġloser": 58891,
  "ĠrÃ©serve": 141595,
  "Ġcof": 68803,
  "ĠØ§ÙĦÙĦÙĬØ¨ÙĬ": 143509,
  "è³": 82712,
  "åģļå·¥": 115238,
  "ĠnÃ¤m": 143524,
  "ĠÐ¸Ð³ÑĢÐ¾Ð²": 138601,
  "_TO": 8650,
  "Ġì£¼": 55673,
  "Ġinorder": 66041,
  "Mich": 19560,
  ".element": 12333,
  "ĠCONNECT": 63022,
  "ĠÄĳÃ¡nh": 128826,
  "à¸ķà¸±à¸§à¹ģà¸Ĺà¸Ļ": 141433,
  "ĠPuzzle": 60012,
  "æį¢æĪĲ": 113552,
  "Ġchaired": 98106,
  "uspend": 12758,
  "ouchers": 52755,
  "ĠmÃ¼ssen": 47827,
  "/temp": 70445,
  "Ġtast": 57072,
  "caa": 87734,
  "æŁĲæŁĲ": 106191,
  "à¸Ĥà¹īà¸²": 127167,
  "ãĤīãĤĮãģ¦": 131908,
  "æĦŁè¬Ŀ": 117419,
  "Ġcontingent": 58475,
  "Ġknack": 93250,
  "ìı´": 146057,
  "illet": 40884,
  "èŀįèµĦ": 100752,
  "è¶ĬæĿ¥è¶Ĭå¥½": 115360,
  "ĠÙĬØ±ÙĬØ¯": 137229,
  "Ä±y": 127034,
  "Mounted": 90789,
  "åłĨç§¯": 109266,
  "sqrt": 26888,
  "Currency": 26321,
  "ISTRY": 62049,
  "WM": 15210,
  "?>Ċ": 5993,
  "fall": 13464,
  "ãĥªãĥ³ãĤ¯": 136140,
  "irit": 6906,
  "Ġ{}),Ċ": 77872,
  "'A": 51274,
  ".E": 5142,
  "×ŀ×¢×¨×ĳ": 134732,
  "è¡Įéķ¿": 114003,
  ".vertx": 84825,
  "ĠCeramic": 78250,
  "iasm": 32890,
  "à¼»": 147372,
  "æĻ¯å¾·éķĩ": 117421,
  "ĠPaso": 66329,
  "(dir": 14161,
  "ĠcaractÃ¨re": 143704,
  "ĠWildcats": 96850,
  "(Function": 53916,
  "Ġvá»«a": 128727,
  "Ġvalores": 36152,
  "æ³¨å®ļ": 108570,
  "mitted": 5483,
  ".orientation": 45707,
  "ritten": 12153,
  "orgen": 39563,
  "Inv": 15174,
  "cite": 67075,
  "Å¼": 5951,
  "×Ľ×ľ×Ľ": 127401,
  "Ġ@[": 95800,
  "/Dk": 96620,
  "-char": 42538,
  "Ġglue": 37461,
  "_featured": 79420,
  "Ġjson": 2951,
  "ĠZwe": 83126,
  ".setEditable": 71553,
  "åĪ©åĻ¨": 118273,
  "wt": 9306,
  "-edge": 47348,
  "Ġpumping": 52126,
  "unft": 60730,
  "ĠAdvance": 46296,
  "/blob": 34827,
  "entina": 23909,
  "âĮĤ": 147339,
  "çĩ¥": 101575,
  "ĠÃ¤hn": 141152,
  "æĤ¢": 122710,
  "ä¸ºäºĨéģ¿åħį": 118763,
  "vous": 57445,
  "locations": 31309,
  "Ġsovere": 28997,
  "åĹľ": 114732,
  "Ġstretch": 14501,
  "uess": 33301,
  "ï²Ģ": 151216,
  "$temp": 73143,
  "Ã¢u": 124692,
  "udiantes": 68754,
  "Ġincorporation": 87365,
  "æĥ³åĪ°": 101303,
  "à¸¢à¸´à¸Ļ": 138293,
  "Ġvictims": 12415,
  "é£Łãģ¹ãģ¦": 140457,
  ".ERROR": 27858,
  ".Ċ": 624,
  "å®ģéĿĻ": 110212,
  "Ġdziew": 83504,
  "Ġsetbacks": 96637,
  "çķĻä¸ĭäºĨ": 108524,
  "M": 44,
  "ÙĨØ²": 130163,
  "_CAN": 45600,
  "Ġstamps": 49212,
  "×Ĺ×©": 124928,
  "æłĩ": 30844,
  "Desktop": 23597,
  "Ġdong": 72736,
  "Ø®ØµØµ": 127564,
  "ĠBuddy": 59526,
  "æĪĲéķ¿ä¸º": 114050,
  "ĠAssy": 97013,
  "ĠTian": 47343,
  "Ġtheaters": 43766,
  "vi": 9971,
  "å¼łåħĪçĶŁ": 117729,
  "çĽ¸æ¯Ķ": 101208,
  "ãĥĪãĤ¤": 137786,
  "ĠnÃ¦r": 56697,
  "×Ļ×¦×Ļ×¨×Ķ": 139189,
  "çĴŁ": 121702,
  "ĠKirst": 80677,
  "Ġconspic": 74215,
  "Ġerratic": 94575,
  "[{": 52108,
  "(Bitmap": 57574,
  "Ġindicator": 20438,
  "éŃģ": 111984,
  "evento": 83954,
  "ï¦ĺ": 151137,
  "Forum": 47321,
  "èĦ±": 99694,
  "niest": 84780,
  "ensa": 57825,
  "(Window": 43305,
  "Ġpayoff": 84265,
  "UpperCase": 20953,
  "isse": 15398,
  "æĪ¿åŃĲ": 102199,
  "Ġextremists": 57907,
  "ĠPQ": 61717,
  "OLL": 21535,
  "ĠEXP": 13460,
  "çŀ¬": 101392,
  ".job": 29270,
  "ãĦı": 150107,
  "Ġassuming": 25538,
  "çĮĽåľ°": 117890,
  "â´·": 148066,
  "(mappedBy": 97086,
  "Ġdebts": 44205,
  "-ready": 63915,
  "ĠHouse": 4678,
  "à¸ªà¸±à¸Ľ": 134369,
  "çŀ¬éĹ´": 102415,
  "Ġzahl": 88628,
  "rapy": 60826,
  "ĠcheckBox": 52558,
  "\\\"\",Ċ": 95901,
  "å¥½è½¬": 110591,
  "âĢľWell": 87825,
  "Ø¨ØŃØ±": 127035,
  "INFRINGEMENT": 25218,
  "ĠFIXME": 27475,
  "Forever": 90561,
  "-Token": 89022,
  "ĠTaipei": 96345,
  "ÑĢÐ¸ÑĤ": 126098,
  "Ġunnecessary": 25165,
  "ĠXY": 57319,
  "Ġministry": 24846,
  "ĠimageNamed": 30293,
  "ĠCannes": 83520,
  "ĠRaises": 60311,
  "ĠLENGTH": 71838,
  "ãģ¾ãģĽãĤĵ": 124266,
  "Ġtoxicity": 56911,
  "ĠskÅĤad": 131185,
  "ðŁĵĥ": 147772,
  "ĠAddison": 98994,
  "Ġawesome": 12456,
  "bes": 9433,
  "Ġgegen": 34699,
  "ĠPubli": 138190,
  "Scale": 6947,
  "ability": 2897,
  "ðŁİ¶": 145234,
  ".translate": 25909,
  "ĠArmor": 31183,
  "ä¸ĢåŃĹ": 113467,
  "ÃŃg": 70337,
  ".Should": 26693,
  "åıįè¿ĩæĿ¥": 116918,
  "(Name": 21182,
  "_Normal": 74900,
  "ĉwith": 46948,
  "Ëĥ": 145846,
  "ĠGr": 2825,
  "Ġend": 835,
  "Ġpopular": 5411,
  "æľīåı¯èĥ½": 102410,
  "Ġaccuse": 61642,
  "ĠÐ²ÑĭÐ²Ð¾Ð´": 84294,
  "ĠCertified": 35442,
  "Ġprovinc": 27807,
  "ĠEase": 94021,
  "ĠHighly": 52385,
  "èĮ¶åı¶": 105859,
  "judge": 92361,
  "Ġconcentrations": 31366,
  "ocus": 3384,
  "Ġdefinite": 43770,
  "áµĺ": 149005,
  ".parent": 8659,
  "_ml": 76567,
  "Offsets": 81095,
  ",Integer": 61198,
  "å£°éģĵ": 111332,
  "Ġ*)&": 22158,
  "-esque": 78958,
  "ĠBilly": 32819,
  "Identification": 95212,
  "ĠBitmapFactory": 69896,
  "_INITIALIZER": 90214,
  "âĹļ": 150697,
  "çĸ«èĭĹ": 105409,
  "âĵĪ": 147005,
  "Ġreass": 31734,
  "ĠACTIVE": 74775,
  ".Resume": 15346,
  "ĠSqlConnection": 27981,
  "acial": 32111,
  "asks": 4604,
  "Ġexperience": 3139,
  "âĶĪ": 144922,
  "ESPN": 86132,
  "thesize": 26887,
  "()<": 59216,
  ">//": 52593,
  "Ġcreative": 11521,
  "Ġ/****************************************************************": 98989,
  "Ġadversaries": 87391,
  ".GetInstance": 53048,
  ".newLine": 88183,
  "Ġavere": 82825,
  "æŀģæĺĵ": 118670,
  "Ġpenetrating": 89200,
  "ĠMahm": 71611,
  "pic": 15587,
  ".getP": 48282,
  "ĠdÆ°á»Ľi": 129227,
  "èĤĨ": 110544,
  ".matrix": 33245,
  "Ġ\"+Ċ": 63393,
  "Account": 7365,
  "UARIO": 65585,
  "Slash": 88004,
  "ĠClim": 61830,
  "Ġrandomness": 86690,
  "åĶ®": 99429,
  "rias": 47831,
  ".favorite": 91464,
  "_CR": 24314,
  "ÑĭÐ²Ð°ÑİÑĤ": 136474,
  "Ġsou": 5822,
  "habi": 61595,
  "onent": 84547,
  "tÄ±": 125453,
  "Ġadministrations": 77073,
  "_SQL": 46625,
  "è±ªå®ħ": 113387,
  "ĠpresentViewController": 82448,
  "è´¢ç¨İ": 115765,
  "ĠConfirm": 33563,
  "Ïį": 145099,
  "áĤ": 126186,
  "æľįé¥°": 106863,
  "ĠRNG": 72606,
  "shops": 26770,
  "Ġsponsorship": 54431,
  "ä¹°": 99565,
  "fdb": 94228,
  "ĠpassÃ©": 80521,
  "\\Repositories": 57283,
  "åľ®": 119591,
  "ĠWS": 24906,
  "ĠÑĩÐµÑĤÑĭÑĢÐµ": 139847,
  "ĠCultureInfo": 44467,
  "Ġunavailable": 34987,
  "Ġcoeffs": 79172,
  ">*</": 96609,
  "DT": 10599,
  "íģ»": 151490,
  ".outer": 53719,
  "ĠÐ´Ð°Ð½Ð½Ñĭ": 34364,
  "Ġconcurrency": 78010,
  "<Boolean": 49872,
  "engo": 64653,
  "Ġlettre": 69456,
  "Ġcombo": 22734,
  "Ġsmartphones": 35022,
  ",GL": 91082,
  "è¸¬": 121604,
  "Ġroulette": 48111,
  "Ġrelies": 33644,
  "ðŁĮ¼": 145299,
  "ĠphÃ³ng": 136607,
  "ĠBool": 12608,
  "ĠPare": 74185,
  "ĠLIS": 99026,
  "Ġsung": 39339,
  "Ġfixing": 35251,
  "Ø¨Ø§Ùĥ": 134993,
  "Affected": 81805,
  "Ġwater": 3015,
  "/on": 86537,
  "å¯¦æĸ½": 117887,
  "graphic": 85872,
  "å¡«è¡¥": 110999,
  ".Persistence": 67164,
  "ãĤ¤ãĥ¤": 134267,
  "ĠAutomation": 53778,
  "Ġ×¢×ŀ": 126753,
  "Ġevils": 85807,
  "SAM": 86334,
  "AX": 2954,
  ".streaming": 83958,
  "åıĤä¸İåĪ°": 113965,
  "×ª×¦×ķ×Ĵ": 142059,
  "Ġflashing": 49757,
  ".release": 25561,
  "ami": 10606,
  "ĠgetOrder": 82627,
  "éĶĢæ¯ģ": 112265,
  "//------------------------------------------------------------------------------Ċ": 45814,
  "ĠØ§ÙĦØ¹": 123894,
  "ç¤¾ä¼ļä¸»ä¹ī": 104407,
  "Ø¹Ø±Ø¶": 126320,
  "×¡×ĳ×Ļ×ĳ": 134026,
  "gages": 55044,
  "ðŁĹĴ": 148938,
  "å§ĵåĲį": 66187,
  ">\\<": 23635,
  "ä¸¥è°¨": 108487,
  "åİ»åĵªåĦ¿": 117881,
  "ë¡Ŀ": 49664,
  "Ġvolver": 86362,
  "ChangeListener": 31668,
  "Ġunanimously": 64078,
  "ê¿ĭ": 145513,
  "powered": 51516,
  "ï½¶": 144414,
  "ĠlineWidth": 72840,
  "ï§·": 146976,
  "Ú¿": 146448,
  "Ġtous": 25642,
  "Ġsenha": 48802,
  "Ġkáº¿": 128495,
  ".light": 34490,
  ".toDouble": 72008,
  "ĠÐ¼Ð¸ÑĢÐ¾Ð²": 138061,
  "æºŁ": 121313,
  "Ġtart": 44815,
  "ĠVulner": 80111,
  "\"\"": 3014,
  "à¹ģà¸Ī": 125827,
  "Ġsprawling": 70892,
  "tout": 66333,
  "ĠëĮĵ": 143242,
  "ĠtÆ°": 128379,
  "ìŁİ": 148160,
  ".trailingAnchor": 88896,
  "DidAppear": 70174,
  "à¸ģà¸£à¸±": 143316,
  "WillDisappear": 80491,
  "ĠPANEL": 80024,
  "ĠData": 2885,
  "Ġfreshness": 98216,
  "Ġcomida": 97778,
  "ĠAngular": 28578,
  "ĠÐ½Ð¾Ð²ÑĭÑħ": 136820,
  "airport": 86615,
  "Box": 1611,
  "å¿ĺè®°": 102827,
  "ĠPax": 70321,
  "ĠSydney": 21273,
  "å¥łå®ļ": 113893,
  "DH": 51326,
  "åıĤä¸İ": 100651,
  "ĠÐ´Ð²Ð°": 130876,
  "å¤ĸè¯Ń": 111608,
  "é£Ĺ": 123382,
  "ĠNV": 24458,
  "à¸ľà¸¹à¹īà¸Ĺà¸µà¹Ī": 135879,
  "Ġproofs": 77159,
  "ens": 724,
  "(signal": 56782,
  "IÃĬ": 142911,
  "èľĪ": 119458,
  "ìľħ": 146077,
  "_templates": 49526,
  "Ġverifier": 88737,
  "ĠinitComponents": 52056,
  "ĠØ£Ø¯": 131549,
  "aille": 50909,
  "RoutingModule": 36539,
  "EMY": 63442,
  ");;Ċ": 93897,
  "$field": 61851,
  "/src": 13437,
  "\":\"\",\"": 60767,
  "ughters": 26505,
  "ĠVacuum": 75010,
  "ĠGeological": 79750,
  "Ġdripping": 76215,
  "ICIAL": 82904,
  "Ġíķ¨ê»ĺ": 129676,
  "ĉWrite": 60373,
  "æ§Ń": 121575,
  ".detectChanges": 36561,
  "ĠSul": 45862,
  "-checkbox": 49073,
  "ĠÐ¾ÑĤÐ½Ð¾": 128001,
  "ĠìĿ´ìłľ": 132911,
  "Ġcapt": 6427,
  "Ġterritorial": 51382,
  "ĠÑģÑĭÐ½": 141723,
  "Ġgotten": 17019,
  "Ġorbital": 64591,
  "CÃ³mo": 95897,
  "(gt": 79342,
  "Ġincremental": 52299,
  "_previous": 52552,
  "ĠCabinet": 32946,
  ".Utility": 62652,
  "èĳĹä½ľ": 101712,
  "ĠOre": 33443,
  "Ġdrunken": 62363,
  "-Ch": 29553,
  "Ġthereafter": 44995,
  "DEST": 62571,
  "Ġcontato": 74613,
  "ĉshort": 47981,
  "ä¸ºæŃ¢": 101784,
  "ĉfree": 16959,
  "äº«çĶ¨": 115307,
  "Ġaimed": 19469,
  "_life": 72491,
  "Ġdeton": 54674,
  "emen": 16335,
  ").ĊĊĊĊ": 30034,
  ".PostMapping": 88540,
  "terminal": 36327,
  "èľĲ": 123187,
  ".displayName": 44031,
  "ĠTorrent": 63786,
  "_BACKGROUND": 70128,
  "Üķ": 146473,
  "-be": 15150,
  "âļĽ": 148324,
  "Ġuniversities": 23106,
  "Ġohio": 95885,
  "byname": 94878,
  "Ġjud": 5741,
  "ettel": 84793,
  "ĠnewArray": 62917,
  "ìľł": 125522,
  "_subtitle": 94927,
  "FAILURE": 90252,
  "_IP": 16607,
  "Ġgd": 32630,
  "/sw": 42934,
  "ì©Ĳ": 145390,
  "_peer": 45159,
  "Ġgpu": 38434,
  "ĠonOptionsItemSelected": 63967,
  "oi": 6728,
  "à¹Ĥà¸ķà¹Ĭà¸°": 139795,
  "Ġquadrant": 93286,
  "ĠIDEA": 72045,
  "Ġmales": 24037,
  "×ŀ×Ļ×Ļ×ľ": 131055,
  "(kernel": 55157,
  "ØŃØ³": 125154,
  "ëĤ³": 144416,
  "ãĥľ": 125065,
  "ä½łçľĭ": 106878,
  "×§×¨": 124017,
  "ĠBaz": 91711,
  "Ġwatt": 66172,
  "å¹¸": 99747,
  "ðĿĩĬ": 151296,
  ".Message": 8472,
  "ðŁĲ½": 147120,
  "ĠNev": 24324,
  ";r": 85308,
  "mall": 29532,
  "\\Bridge": 98110,
  "Ġ//--": 72549,
  "ĠTensorFlow": 94986,
  "sandbox": 76756,
  "ĠÐ·Ð°Ð¹Ð¼": 140517,
  "typename": 9031,
  ".fasterxml": 27739,
  "ĠCommun": 56198,
  "Ġimmedi": 5551,
  "Ġgam": 9015,
  "âĢĲ": 29921,
  "!='": 25005,
  "à¸ģà¸´à¸Ī": 125195,
  "strike": 73004,
  "-im": 36925,
  "ØªÙĤØ§Ø±": 139644,
  "_equal": 11478,
  "èľ±": 121419,
  "(network": 46542,
  ");\">Ċ": 93905,
  "ĠÐ±ÑĭÑĤÑĮ": 61631,
  ".oc": 77984,
  "ĠHÃ¡": 135611,
  "_mas": 81641,
  "(next": 16913,
  "é¿İ": 122790,
  "sun": 39519,
  "ĠPLUS": 58453,
  "ä¼Ĳ": 101657,
  "ĠMai": 42256,
  ".Ship": 85811,
  "Ġbulletin": 74729,
  "ĠMexicans": 96762,
  "Ġscaff": 56150,
  "çīĪæĿĥæīĢæľī": 105671,
  "Ġthous": 7048,
  "Ġexcuses": 54486,
  "Ġevapor": 59050,
  "vider": 3734,
  ".RESET": 97452,
  "ĠConserv": 20049,
  "Ġbreakout": 62688,
  "Ġ=čĊ": 32203,
  "çĽ´å±ŀ": 111507,
  "oka": 30766,
  "ãĤ¢ãĥ«": 125760,
  "ĠSanders": 16859,
  "iated": 10029,
  "ĠPhotography": 40047,
  "ĉdelta": 85435,
  ".custom": 24268,
  "/math": 59705,
  "ãĤ½ãĥ³": 135908,
  "Ġdocumentos": 99027,
  "xa": 9591,
  "Ġfootsteps": 59702,
  "ĠHarr": 15234,
  ".Sin": 66055,
  "ĠTransition": 37721,
  ".consume": 79424,
  ".debugLine": 72910,
  "âĺĳ": 144783,
  "ä¼£": 122164,
  "ampion": 13277,
  "ĠsaÃ§": 135271,
  "ãģ»ãģ¨": 130841,
  "Young": 40572,
  "Ġnichts": 59765,
  "Ġevangelical": 66585,
  "æĹ¥æĬ¥": 100824,
  "äģĸ": 121405,
  "éī´åĪ«": 115653,
  "ĠÐłÐ°Ð·Ð¼ÐµÑĢ": 143040,
  "-we": 61341,
  "Pu": 76362,
  ".push": 2552,
  "sher": 89505,
  "LIBINT": 56669,
  "));čĊ": 4860,
  "ĠAh": 16366,
  "Api": 6563,
  "ĠWhat": 3555,
  "áĭ°": 148906,
  ".Future": 76356,
  "Ġasyncio": 44918,
  "å¾®ä¿¡": 100197,
  "aseÃ±a": 42523,
  "ĠFilm": 16631,
  "ĠAU": 39056,
  "Format": 4061,
  "Ġparten": 97294,
  "outside": 66990,
  "Ġleider": 88028,
  "æĹ¥æ¶Īæģ¯": 110116,
  "getY": 52568,
  "-olds": 64148,
  "Ġwarehouse": 30112,
  "akistan": 69293,
  "åĪĿåĪĽ": 116745,
  "å®¹åĻ¨": 109300,
  "Ġthiáº¿t": 128422,
  "Ġderive": 42430,
  "èĻļå¼±": 116265,
  "ĻĤ": 18535,
  "Ġfrontier": 48000,
  "Ġnod": 16004,
  "ĠØ§ÙĦØ´": 124209,
  "wn": 1522,
  "å½°æĺ¾": 106985,
  "åŁİç®¡": 109947,
  "Ġprocure": 79679,
  "âĤª": 135815,
  "'}ĊĊ": 67625,
  "Rec": 3820,
  ".Repositories": 46658,
  "Ġfurnish": 51159,
  "à´ķ": 147984,
  "é¢ĦçķĻ": 116437,
  "Mesh": 14194,
  "æķĻèģĮå·¥": 117760,
  "ythe": 95860,
  "ĉmouse": 90481,
  "ĠTea": 30025,
  "Ġcosmetics": 64965,
  "(Node": 22078,
  "ĠCheap": 35934,
  "isActive": 31814,
  "Ġrestore": 14952,
  "å®īä¸ľ": 116526,
  "-max": 44073,
  "NOTE": 27792,
  "eeper": 43031,
  "è¿º": 122441,
  "Ġcandid": 5685,
  "Ġtent": 15632,
  "áĥ¨": 148210,
  "-count": 26580,
  "bilitÃł": 130670,
  "ì£¼íĥĿ": 142846,
  "ð¬Ń": 99598,
  "Ġdeluxe": 78424,
  "æĭĬ": 119806,
  "_MATERIAL": 92932,
  "íĦ°": 33861,
  "è´¨": 99178,
  "osaur": 57976,
  "Rpc": 60248,
  "-switch": 47196,
  "ĠHebrew": 36266,
  "ĠBiol": 80794,
  "EDIATEK": 48353,
  "Ġdealer": 23321,
  "ãĤĴè¡ĮãģĨ": 134328,
  "Ġfluids": 55306,
  "ĠBringing": 97073,
  "ðĿĲ¢": 146039,
  "conomic": 31007,
  "/prom": 76951,
  ".Reflection": 25041,
  ".offer": 61641,
  "æ³¨åħ¥": 106248,
  "æĳ¹": 119042,
  "Ġ]).": 96711,
  "uintptr": 51380,
  "ĠgetAll": 23955,
  "ĠGun": 21707,
  "PCR": 73156,
  "(src": 14705,
  "æ¯ıæ¬¡éĥ½": 114981,
  "×¤×Ĵ×Ļ×©×Ķ": 142780,
  "Ġthrilled": 37464,
  "cli": 19521,
  "ristol": 40615,
  "Ġmariage": 88260,
  "Ġmesmo": 40249,
  "ĠëĤ´": 66136,
  "..\\": 60402,
  "Laura": 76460,
  "ãģ«ãĤĪ": 126386,
  "Cc": 97754,
  "Ġecc": 32914,
  "Ġadvisers": 50975,
  "KI": 80971,
  "_sq": 47252,
  "ĠÃ¶lÃ§": 137202,
  "Ĳľ": 54492,
  "Ġ//{": 91611,
  "èĢĮåıĪ": 108204,
  "ç¶²ç«Ļ": 101352,
  "Ġdesar": 39759,
  "æĶ¯åĩº": 105089,
  "ëģĪ": 144474,
  "ĠkarÅŁÄ±": 126285,
  "_xx": 95968,
  "ä¿ļ": 120162,
  "ØªØ£Ùĥ": 137320,
  "_save": 15376,
  "ĠMilwaukee": 35818,
  "ĠØ¨Ø§ÙĦØ¥Ø¶Ø§ÙģØ©": 134157,
  ".\")Ċ": 13053,
  "è¿ĻäºĽä¸ľè¥¿": 114649,
  "ĠmarginBottom": 32036,
  "éĴ¢æĿ¿": 112375,
  "ãĪ¼": 151617,
  "aff": 2649,
  "DOMContentLoaded": 77507,
  "è¯ģæĺİ": 104022,
  "Ġtet": 27853,
  "ĉvector": 20365,
  "Ġtablespoons": 55488,
  "Ø®Ùħ": 133781,
  "://%": 86791,
  "Linked": 22070,
  "Ï¤": 149495,
  "Separated": 91925,
  ".writeValue": 89222,
  "Ġ},": 2470,
  "ì§ģ": 125545,
  "ÅĤat": 126798,
  "Ġservidor": 57226,
  "é½Ĭ": 114016,
  "-status": 34998,
  "(nums": 21096,
  "elf": 490,
  "TextStyle": 72963,
  "èįīèİĵ": 112292,
  "áĪĴ": 150485,
  "Ð¾Ð³Ð¾": 22107,
  "ÐµÐ½Ð½Ð¾Ð³Ð¾": 133479,
  "ç¿³": 121866,
  "ãĥ¢ãĥ³": 133858,
  "Ġcoloring": 34887,
  "typedef": 5286,
  "ĠTimber": 44148,
  "Ġsharp": 17232,
  "ç¤¾ä¼ļå®ŀè·µ": 118512,
  "xDE": 78979,
  "_PLACE": 81924,
  "ä½¿ä¹ĭ": 111840,
  "ë§Ļ": 144377,
  "Ġ\"{\"": 97049,
  "likely": 14282,
  "å»ºçŃĳä¸ļ": 115376,
  "BundleOrNil": 85315,
  "ĠCaj": 95779,
  "Ġbergen": 77325,
  "ÐĽ": 63914,
  "à¸ļà¸±à¸Ļà¸Ĺ": 135440,
  "\"]/": 45058,
  "Ġfetus": 75588,
  "_response": 9655,
  "ilded": 90254,
  "ĉO": 48049,
  "çĽ¸å¯¹è¾ĥ": 110426,
  "ogen": 11706,
  "éĢīåĩº": 115751,
  "ĠPulitzer": 95715,
  "Ġauxiliary": 53458,
  "ÑģÐ¸Ð½": 133961,
  "Ġhistoire": 86710,
  "ãĥĦ": 124788,
  "åıĪå¥½": 112387,
  "Ġattorney": 13747,
  "ÐľÐŀ": 140959,
  "æĸ°æµªè´¢ç»ı": 114438,
  "Ġ×Ĳ×Ļ×Ľ×ķ×ª×Ļ": 138439,
  "ĠÑĢÐ°Ð²Ð½Ð¾": 135934,
  "Ġlanc": 75285,
  "¬ģ": 70731,
  "_BO": 12551,
  "à®´": 146360,
  "Linear": 31898,
  "Ġtanks": 25866,
  "ĠQMap": 98261,
  "Ġlee": 81944,
  "ĠØ§ÙĦÙħØµØ¯Ø±": 138026,
  "åħ¬çĶ¨": 112718,
  "arters": 14361,
  "Ġrocking": 66624,
  "åĨ³å®ļ": 103930,
  "ĠSteven": 23644,
  "×ŀ×¡×¢": 127716,
  "æĺ¯åĽłä¸º": 104404,
  ".UPDATE": 65373,
  "Ġmagistrate": 94091,
  "Ġquando": 29705,
  "ĠLuxembourg": 64871,
  "Ġsources": 8173,
  "+\"/": 27569,
  "àºĹ": 147371,
  "Ġparagraph": 14311,
  "Ġretros": 48358,
  "Ġaudi": 46368,
  "ĉpub": 62529,
  "ĠAHL": 89918,
  "Ġ\"\",čĊ": 53949,
  "ĠÙĪØ¨ÙĬÙĨ": 135647,
  "ĠÐ¿Ð¾Ð½ÑĢÐ°Ð²": 141689,
  "×¢×ŀ": 132341,
  "ĠStored": 93785,
  "ð¬ª©": 123165,
  "atab": 2096,
  "xford": 22566,
  "Inserted": 91269,
  "ĠSUBSTITUTE": 30530,
  "ä¸įè§ģäºĨ": 115096,
  "eo": 24612,
  "ĠØ§ÙĦØ¨Ø¹Ø¶": 137647,
  "_Pods": 76861,
  "Ġprincipalmente": 94337,
  "Ġutil": 4094,
  "Below": 38214,
  "Ð²ÑĢÐµÐ¼ÐµÐ½Ð½Ð¾": 142805,
  "akra": 51403,
  "ÅĦskiej": 138888,
  "æŀģåħ·": 109632,
  ".Butter": 97372,
  "BUTTON": 38450,
  "Ġappointment": 17635,
  "èŁ«": 123680,
  "éĿĴå²Ľ": 102240,
  "_imm": 71370,
  "çĸ²æĥ«": 111130,
  "ëĭĺ": 124683,
  "èĻĴ": 122664,
  "Ġsurvivor": 48648,
  "/Peak": 89724,
  "storeId": 84397,
  "×©×ŀ×Ļ": 130327,
  "/***/": 21724,
  "Ġstains": 62463,
  "iger": 7272,
  "æ¯ıä¸ª": 103991,
  "ĠÃ¶zellikleri": 138118,
  "Ġstarts": 8471,
  "ĠRand": 23963,
  "å¿ħä¸įåı¯å°ĳ": 110033,
  "Ġorg": 1240,
  "Ġscar": 22290,
  "recv": 33977,
  "Achie": 71585,
  "è¦ģæĺ¯": 104806,
  "_ALIAS": 61608,
  "();\"": 69099,
  "Ġexplos": 13894,
  "Ġlá»Ľp": 130192,
  "Ġfutile": 84527,
  "èĨł": 119105,
  "RequestMethod": 69790,
  "ĠCOST": 63712,
  "ĠÃ¶ff": 63318,
  "åı¤ä»£": 102640,
  "×§×ķ×ª": 126928,
  "å¤§éĩı": 100722,
  "otions": 40256,
  "åĵªæĢķ": 103014,
  "Ġreplicas": 80801,
  "Ġcredibility": 37669,
  "Ġalkal": 65687,
  "âĮ©": 146051,
  "Ġmdi": 68944,
  "_ATTR": 12865,
  "/File": 64068,
  "_bw": 64484,
  "(cur": 17591,
  "ð¬¬¹": 122647,
  "ĠNorfolk": 58692,
  "å¼ĢéĢļ": 105392,
  "Ġpretending": 54806,
  "Ġlinen": 54015,
  "ems": 11852,
  "_move": 17134,
  "é¼¬": 121991,
  "Pet": 34819,
  "ê·Ģ": 133032,
  "vrir": 62246,
  ".called": 44549,
  "ĠInstruction": 29051,
  "Ġstaring": 36774,
  "æĢ«": 119967,
  "ç¸¢": 123562,
  "ĠÐ¿ÑĢÐ¾ÑģÑĤÐ¾": 129021,
  "Ġasympt": 96254,
  "landÄ±": 131181,
  "://\"": 52136,
  "itol": 26003,
  "ĠÑĨÐµÐ»ÑĮ": 142963,
  "ogie": 77672,
  "yor": 47220,
  "Ġbask": 138832,
  "Ġkut": 30599,
  "ĠHerbal": 86872,
  "Ġkeer": 91924,
  "Ġbubble": 23611,
  "Ġpname": 64946,
  "Ñ¥": 148010,
  "åĻ±": 121767,
  "åĸĬ": 104611,
  "Ġspecializes": 45572,
  "udents": 16286,
  "irected": 74612,
  "Ġdevote": 47672,
  "é£İæļ´": 109670,
  "ĠDakota": 27872,
  "áĦĬ": 150472,
  "Ġunittest": 19905,
  "à·´": 147276,
  "ĠQui": 41115,
  "/mol": 38871,
  "Ġ=================================================================": 16168,
  "maal": 78791,
  "}\"Ċ": 11195,
  "éļ¾çĤ¹": 108716,
  "Ġexporting": 60221,
  "ipp": 2807,
  "Ġcultivated": 66066,
  "ä¸ľæµ·": 111903,
  "_void": 37775,
  "éĺ²çģ«": 106617,
  "Ġconnection": 3633,
  "ĠyÃ¼": 134135,
  "uesta": 19441,
  "ĠMoving": 37627,
  "Ġunderestimate": 78483,
  "ĠÃ¼rÃ¼nÃ¼": 142545,
  "Ġillness": 17125,
  "Ubergraph": 84047,
  "\\brief": 96041,
  "ĠLTE": 51398,
  "åįĥä¼ı": 118350,
  "âĺĿ": 145216,
  "Ð±Ð¾Ð»": 125302,
  "ĠDepartment": 5887,
  "());Ċ": 1423,
  "FX": 16381,
  "ĠPapua": 89081,
  "/U": 62010,
  "ĉA": 22985,
  "ì§ĢìļĶ": 137545,
  "ĉMat": 70068,
  "Ġpres": 1652,
  "ĉas": 60451,
  "\"G": 89199,
  "_topic": 31414,
  "æ°¯": 109941,
  "æµģæ·Į": 116301,
  "åħķ": 119709,
  "Ã¨te": 65422,
  "Ġmajority": 8686,
  "outed": 18533,
  "é¢ĦåĶ®": 111813,
  "Ġminim": 21187,
  "stry": 4617,
  "stopped": 89863,
  "á¾ĳ": 150615,
  "Ġsenate": 76370,
  "abilir": 81758,
  "ĠlastIndex": 86972,
  "âĢľHe": 39465,
  "blob": 35112,
  "äºĨåĩł": 107186,
  "Ð¾Ð²Ð°ÑĢ": 56973,
  "_INST": 49893,
  "Ġapproach": 5486,
  "ÑĢÐ°Ð¹": 127705,
  "Ġsummaries": 68922,
  "åĮ»çĶ¨": 112011,
  "Ġgearing": 80722,
  "Ġreminds": 34610,
  "_ENTITY": 46599,
  "Ġbees": 39458,
  "_DEAD": 82898,
  "Ġguy": 7412,
  "ãģ®ãģł": 130621,
  "bitset": 77615,
  "æ²¤": 119748,
  "Ġpersonalised": 84248,
  "æľªæĪĲå¹´": 113246,
  "ĠJonah": 93628,
  "_isr": 88985,
  "_CM": 42337,
  "adow": 5843,
  "iver": 1524,
  ";;Ċ": 28207,
  "iomanip": 59623,
  "Ġdom": 4719,
  "Ø¬Ø±Ø§Ø¦Ùħ": 142270,
  "ÙĥÙĦÙģ": 141103,
  "áĢĸ": 147971,
  "Ġinstinct": 30555,
  "èħ´": 121001,
  "çĳ¶": 106103,
  "ĠÐºÐ°Ð¶ÐµÑĤÑģÑı": 143846,
  "Ġcivilized": 84979,
  "Ġwires": 35008,
  "ĠyanlÄ±": 137667,
  "feas": 89277,
  "çľ¼çļ®": 117795,
  "subscriptions": 72560,
  "/photo": 51392,
  "åĲĮæŃ¥": 104738,
  "_OW": 69819,
  "ĠÅĽwie": 127784,
  "ëĺŃ": 150910,
  "âĬĽ": 148058,
  "Clients": 47174,
  "Scan": 26570,
  "Ġretaliation": 60349,
  "ritt": 54913,
  "Ġoccupants": 74672,
  "ĠFX": 28901,
  "papers": 47293,
  "æĽ´æľī": 104885,
  "è²´": 108871,
  "Ġdoubling": 59015,
  "Ġverdad": 81171,
  "Ø§Ø¦Ùģ": 127208,
  "Ġreferral": 44780,
  "fds": 64834,
  "åĮħå®¹": 108630,
  "minate": 34016,
  "ä¸įåıĺ": 105928,
  "<|fim_middle|>": 151660,
  "\"profile": 36105,
  "Ġsausage": 58886,
  "Ġbesonders": 75590,
  "uden": 60127,
  "ĠOkHttpClient": 78920,
  "ĠÑģÐ¸ÑģÑĤÐµÐ¼": 91999,
  ">>>": 20154,
  "å¡ĺ": 104679,
  "ðŁ§¨": 148409,
  "*******************************************************************************/Ċ": 79403,
  "à¸Ľà¸£à¸²": 131165,
  "Ġspac": 99008,
  "ðŁĵį": 145064,
  "Ġsuppressing": 97695,
  "ĠBarrel": 63971,
  "ç¶ļãģĳãĤĭ": 139534,
  "×Ľ×ł×ķ": 135499,
  "ĠÐ½ÐµÑģÐºÐ¾Ð»ÑĮÐºÐ¾": 130157,
  "æŃ¢æįŁ": 112913,
  "ĠInetAddress": 94890,
  "ĠSECRET": 69956,
  "â¼Ń": 151632,
  "(asset": 50718,
  "Ġphysicist": 82223,
  "cliente": 37771,
  "Ġnz": 42942,
  "Ġbark": 53742,
  "(index": 7195,
  "crete": 9353,
  "åĭĭç«ł": 117754,
  "æĺİç¡®æıĲåĩº": 118160,
  "ãģ¤": 58639,
  "CumhurbaÅŁkan": 138176,
  "æ±½è½¦": 100343,
  "èĩªèº«": 101960,
  "Ã¡ch": 53061,
  "Ġ('\\": 88744,
  "chester": 14819,
  "×Ķ×¨": 137532,
  "aturday": 6970,
  "-vers": 93936,
  "Ġsleepy": 81793,
  "ĠBroadcasting": 63460,
  "ĠSIMPLE": 91484,
  "pri": 68608,
  "ĠStewart": 28768,
  "Ø¹ÙĨØ§": 143629,
  "amacare": 33824,
  "Ġzoning": 64978,
  "coln": 22033,
  "Ġdad": 17760,
  ".pending": 64788,
  "Ġpratic": 97039,
  "ĠĊĉĊ": 51141,
  "Ġipt": 66068,
  "ationship": 15471,
  ".ot": 79361,
  ">')Ċ": 39866,
  "ĠÃ§ek": 126428,
  "ï¬¯": 149259,
  "Ġmillennia": 95631,
  "éĵ¯": 120703,
  "ĠBand": 16936,
  "ðĿĻĦ": 148936,
  "Global": 11646,
  "Ġdib": 41068,
  "Ġmarshaller": 98909,
  "Ġ\"#": 5869,
  ".compute": 35347,
  "Ġgratuiti": 95007,
  "Ġglory": 25936,
  "ĉĉĉĉĉĠĠĠĠĠĠ": 76366,
  "ï²ª": 149141,
  "æĦīæĤ¦": 111985,
  "(userID": 77423,
  "reira": 77242,
  "_DISPLAY": 37579,
  "ĠRolling": 44948,
  "Ġprimaries": 65412,
  "é¢Ł": 121718,
  "Ġterrorism": 23145,
  ".CL": 35908,
  "ĠBLE": 51718,
  "ĠMayÄ±s": 134032,
  "æľªèĥ½": 106197,
  "çİĩä¸º": 111326,
  "å¤§åŃ¦æ¯ķä¸ļ": 114455,
  "ĉto": 31709,
  "?page": 42698,
  "ĠUhr": 38183,
  "ëĮ¸": 150894,
  "/be": 58689,
  "Ġsq": 18031,
  "ÛĮØ¯": 65043,
  "æİĮå£°": 111755,
  "/*----------------------------------------------------------------------------": 57906,
  "èĨĿçĽĸ": 115267,
  "ĠNie": 52283,
  "åħ±åĴĮ": 104772,
  "ĠÐļÐ¾ÑĢ": 134610,
  "ð¬¬®": 122481,
  "killer": 72078,
  "agma": 5716,
  "Anything": 77303,
  ".xmlbeans": 65844,
  "Ġcarne": 94854,
  "è¿ĺåı¯ä»¥": 104468,
  "Ø¹Ø§Ø´": 136792,
  "áŁĽ": 149000,
  "ĠWHATSOEVER": 91892,
  "ĠWagner": 51375,
  "ĠScarlet": 80718,
  "ĠACE": 40806,
  "aired": 24274,
  "(Char": 51666,
  "å³Ļ": 117409,
  "`s": 39829,
  "ĉlogin": 75755,
  "reply": 21034,
  "FN": 41604,
  "ØŃØ¯Ø¯": 132031,
  "twig": 71653,
  "ĠÙĦÙĩ": 125490,
  "=========Ċ": 66686,
  "æĺıè¿·": 115635,
  "à´İ": 150120,
  "Ò®": 146397,
  "\\\"": 2105,
  "ìĤŃ": 139806,
  "_LOADED": 89917,
  "Ġwide": 6884,
  "ãģ£ãģ¦ãģĹãģ¾ãģĦãģ¾ãģĻ": 139151,
  "Ġ'__": 12112,
  "ĉapi": 54299,
  "Ġ[('": 51128,
  "åĲį": 13072,
  "Ash": 52756,
  "Ġsquirrel": 90524,
  "Ġpornografia": 95784,
  "ãģ°ãģĭãĤĬ": 130984,
  "Ġintestine": 91134,
  "Ġkomen": 81737,
  "ð«·": 123072,
  "ĠNgÃły": 131160,
  "Ġ===": 2049,
  "Ġtensions": 38410,
  "ĠRamirez": 70993,
  "rina": 39971,
  "ĠgetEmail": 67408,
  "åħ¬å¸ĥçļĦ": 108428,
  "ÙħØ¯Ø§Ø±Ø³": 136558,
  "ä¹Łä¼ļ": 103977,
  "Ġpose": 17040,
  "aticon": 85049,
  "Ġë¨¼": 137768,
  "ðŁĺĻ": 145845,
  "Ġlarger": 8131,
  "éĶĸ": 123192,
  "ĠSingapore": 20539,
  "Ġhazard": 30297,
  "ãģįãģ¡ãĤĵ": 139019,
  "ĠPath": 7933,
  "ĉvm": 54879,
  "éĢ²": 100814,
  "*****čĊ": 77136,
  "ĠKeith": 31502,
  ">No": 41157,
  "returnValue": 53015,
  "ĠPa": 15681,
  "Ġetwas": 39771,
  "íŀī": 146499,
  "sequently": 38642,
  "ihil": 51426,
  ".getS": 52966,
  "Ġverschied": 51892,
  "ìĬĻ": 149770,
  "inge": 17707,
  "æ°ĳä¸»çĶŁæ´»": 111188,
  "åıĪç§°": 109972,
  "ä¸īå¤§": 101287,
  "ĠTactical": 70558,
  "Ġfinite": 34226,
  "_PEER": 92742,
  "Ġdeterioration": 81089,
  "niÄĻcia": 141588,
  "å¯¹ä½ł": 105988,
  "ãģ«ãģªãģ£ãģ¦": 128782,
  ",val": 51557,
  "kerja": 74918,
  "è¡½": 120248,
  "Äķ": 145199,
  "è½º": 122453,
  "æķ´æĶ¹": 102225,
  "ĠCirc": 16338,
  "Within": 41961,
  "Ġactionable": 91078,
  "Ġcheated": 77678,
  "ëĻĪ": 149746,
  "ISA": 34201,
  "å½ķåĪ¶": 112615,
  "Æ°á»Ľi": 125628,
  "olation": 34962,
  "ĉmessage": 24753,
  "Ġembryos": 88773,
  "Ġblueprint": 52929,
  "fortunate": 32074,
  "Ġimprobable": 96256,
  "Appear": 28947,
  "åįķä¸Ģ": 106215,
  "ç¯ģ": 121640,
  "Ġcuff": 74423,
  "ĠÐ¼ÐµÑģÑĤÐ°": 134548,
  "Ġsham": 71876,
  "nite": 61564,
  "æĻĤåĢĻ": 102799,
  "æ°": 29220,
  "ĠTavern": 80300,
  "ð¬¯İ": 122909,
  "Rate": 11564,
  ".IsEnabled": 53073,
  "_SR": 48163,
  "describe": 12332,
  "èº«åŃĲ": 108233,
  "Ġrepro": 52723,
  "Ġjong": 63413,
  "çĢį": 123708,
  "oped": 16367,
  "éĸĭæĶ¾": 117208,
  "ĠgetSize": 66735,
  "Ix": 96112,
  "_PA": 26191,
  "Ġ×Ļ×Ķ×ķ×ĵ×Ķ": 139915,
  "Cancelled": 39473,
  "ĠStudio": 18563,
  "æ¼Ķä¹ł": 117270,
  "éŀ£": 121963,
  "rott": 46689,
  "ĠÐ·Ð°ÑīÐ¸ÑĤÑĭ": 141947,
  "@Ċ": 62799,
  "Ġ'::": 97752,
  "Ð¹ÑĤ": 136101,
  "ÐºÑĢÑĭÐ»": 138320,
  "ìī½": 143344,
  "ĠFinds": 50630,
  "ÐµÐ·ÑĥÐ»ÑĮÑĤÐ°ÑĤ": 76284,
  "âĢ½": 147348,
  "onesia": 56672,
  "faction": 90309,
  "Ġrequirement": 16287,
  "ĠtypingsJapgolly": 71640,
  ".aspx": 24662,
  "ãĥ¯ãĥ¼ãĤ¯": 137107,
  "ĠbÃ¼tÃ¼n": 130625,
  "appings": 23036,
  "fish": 18170,
  "Ġ×ľ×Ľ×Ł": 132255,
  "Ġcollo": 80948,
  "biology": 80062,
  "åħĭèİ±": 118625,
  "Ġsociedad": 89687,
  "Ġimmer": 25531,
  "contrib": 47110,
  "æł½åŁ¹": 110898,
  "âĴº": 149664,
  "ailability": 12535,
  "íĶ¼": 129262,
  "Options": 3798,
  "ÃĤN": 141570,
  "ĠZur": 49192,
  "ĠÑģÐ¸ÑĤÑĥ": 128051,
  "Ġdá»ħ": 128926,
  "Rua": 65281,
  "×¤×ª": 124607,
  "jj": 38811,
  "Ġmessy": 45846,
  "Ġenjo": 30579,
  "éķİ": 123462,
  "æĽľ": 119131,
  "UnityEngine": 18188,
  "ĠíķĺëĤĺ": 125703,
  "ëĤ®": 143933,
  "ãĩ½": 151637,
  "/self": 68239,
  "ĠEntryPoint": 72685,
  "Ġpressured": 74351,
  "Ġopcion": 72808,
  "ioso": 58448,
  "åĩºéģĵ": 112280,
  "ä¾ª": 119910,
  "Ġdiseases": 18808,
  "ìŀĺ": 144505,
  "_GROUP": 20130,
  "äº®çĽ¸": 105634,
  "queeze": 19340,
  "æĥħæĢĢ": 107268,
  "Ġforg": 11548,
  "ãĤ´ãĥ¼ãĥ«": 139001,
  "Ġunspecified": 54311,
  "ØªØŃØ¯ÙĬØ¯": 131808,
  "åįĥä¸ĩåĪ«": 115057,
  "gesture": 85357,
  "ĠrÃ³Å¼": 79944,
  "Poor": 84103,
  "ä»¥åħ¶": 109859,
  "æ¸¸æĪıæĵįä½ľ": 108336,
  "Ġketogenic": 93750,
  "Thr": 98840,
  "Ġenergia": 95058,
  ")(*": 72796,
  "bohydr": 33558,
  "branches": 67839,
  "}));ĊĊ": 44316,
  "ç§¯æŀģå¼Ģå±ķ": 110992,
  "ĠMonument": 71277,
  "åįĥç±³": 112925,
  "_perm": 31961,
  "ĠElectronic": 34169,
  "webpack": 11380,
  "Ġzijn": 18488,
  ",Yes": 97071,
  "_SYS": 26783,
  "å¤§åĬĽ": 100828,
  "_exec": 18430,
  "Ġrecruiters": 92840,
  "JUST": 48002,
  "ĠChristoph": 94593,
  "Ġcaregivers": 73640,
  "ectar": 38816,
  "Ġihtiya": 134616,
  "-L": 8125,
  "×Ĵ×ķ×£": 131836,
  "à¸ķà¹īà¸Ńà¸ĩà¸ģà¸²à¸£": 126553,
  "Ġlebih": 49935,
  "Ġshining": 47925,
  "PickerController": 42911,
  "Ġ×ª×ķ×¨×Ķ": 140534,
  "ĠBorders": 80712,
  "Writing": 39313,
  "Iron": 46393,
  "Ġsalario": 93091,
  "/input": 39990,
  "(Login": 44862,
  "IRECT": 10206,
  "ãģĹãģªãģĮãĤī": 132418,
  "éģķãģ£ãģ¦": 141078,
  "ĠÐ¸Ð»Ð¸": 45077,
  "Creator": 31865,
  "åħ¨éĿ¢å»ºæĪĲ": 112962,
  "ĠĠĠĠĠĠĠĠĠĠĠĠĠĠĠĠĠĠĠĠĠĠĠĠĠĠĠĠĠĠĠĠĠĠĠĠĠĠĠĠĠĠĠĠĠĠĠĠĠĠĠĠĠĠĠĠĠĠĠĠĠĠĠĠĠĠĠĠĠĠĠĠĠĠĠĠĠĠĠĠĠĠĠ": 51475,
  "ĠxOffset": 90638,
  "æı¡": 100212,
  "íĹ¨": 144745,
  "Subtitle": 73622,
  "oky": 69881,
  "Ġ×©×¢×ĳ×¨": 135587,
  "Ġnormalization": 48723,
  "ĠParamount": 81810,
  "Ġìµľê·¼": 139465,
  "à¸Īà¸°à¹Ħà¸Ķà¹īà¸£à¸±à¸ļ": 141065,
  "âĢ¦.": 20428,
  "asl": 75366,
  "ĠACTION": 16054,
  "æ»ļçĲĥ": 112848,
  "ĠÐ½Ð°Ð¹": 134173,
  "ĠÃ¼crets": 137568,
  "qry": 61255,
  "å©ļåĲİ": 115300,
  "ĠÑĢÐ°ÑģÑĤÐ²": 142015,
  "å®": 8508,
  "Db": 7994,
  "_ARRAY": 17724,
  "çħ²": 114728,
  "Ġflam": 73499,
  "éĩĳå±ŀ": 100843,
  "ĠDuck": 45770,
  "Least": 81816,
  "Ġ+": 488,
  "èĬĤçĽ®": 100793,
  "Measured": 85355,
  "Ġstoryboard": 42033,
  "Overlay": 32755,
  "æľ¬å±Ĭ": 106068,
  "ĠíĺĦ": 141526,
  "/plugin": 51372,
  "Ġattachment": 19984,
  "èĳ¡èĲĦéħĴ": 107358,
  "ĠØ§ÙĦØ¹Ø³ÙĥØ±ÙĬØ©": 138277,
  "Ġjeep": 85176,
  "æĨİ": 119066,
  "ĠChoir": 98332,
  "ĠÑģÑĢÐµÐ´Ð½Ðµ": 135141,
  "å½ĵäºĭäºº": 105331,
  "ĠTerr": 17655,
  ".Package": 49834,
  "Ġlisteners": 23562,
  "ĠAunt": 70222,
  "Ġ×ľ×©×ł×ķ×ª": 133977,
  "Ġ×Ķ×Ĵ×ĳ×ķ×Ķ": 140875,
  "ĠPolitical": 30497,
  "::{": 22964,
  "Ġskype": 86672,
  "åĳ¨ãĤĬ": 136979,
  "Ġgt": 25161,
  "-license": 58967,
  "expect": 17119,
  "ç¦Ķ": 123270,
  ".channel": 16195,
  "ĉState": 76424,
  "å±ıéļľ": 114194,
  "_sl": 11886,
  "ĠBooth": 63270,
  "åĨįåĬłä¸Ĭ": 105566,
  "Ġwt": 40473,
  "ptrdiff": 88269,
  "æ»ħ": 115764,
  "ä¸ĩåįĥçĵ¦": 115317,
  "ãĤ¿ãĤ¤": 125330,
  "inscription": 98546,
  "transforms": 94833,
  "ĠTPP": 69011,
  ".lex": 82248,
  "Ġ×ķ×ł": 128970,
  "_serv": 44053,
  "æľįä»İ": 112590,
  "à¹Ģà¸¢à¹ĩà¸Ļ": 132383,
  "Ġbecome": 3635,
  "Ġlikelihood": 28636,
  "ĠznaleÅº": 137837,
  "â°Ĳ": 151627,
  "åĬłåĪĨ": 114908,
  "å¸Ń": 99768,
  "([]*": 85288,
  "éļ¨æĻĤ": 111855,
  "commercial": 83607,
  "Ġorient": 11485,
  "Ġ×ŀ×¢×ķ×ľ×Ķ": 139766,
  "Browser": 17878,
  "à¸§à¸´à¸ĺà¸µ": 126671,
  "Ġvalor": 14116,
  "Ġheure": 76718,
  "eltas": 71906,
  "ðŁİĵ": 145844,
  "ìĤ°ìĹħ": 134066,
  "beginTransaction": 58110,
  ".SQLite": 97601,
  "features": 20304,
  "ä¸Ńå°ıåŀĭ": 116689,
  "Ġvai": 39486,
  "Tek": 55715,
  "åı¯çĪ±": 102783,
  "=min": 61506,
  "_dataframe": 77570,
  "Ġbran": 52258,
  "Ġweld": 32766,
  "Ġtslib": 94261,
  "æıĲéĹ®": 107666,
  "/widgets": 42836,
  "LayoutParams": 60867,
  "Ġtapered": 94055,
  "ðĿķŃ": 149887,
  "]},": 66125,
  "iropr": 54987,
  "å®ļå¾ĭ": 117250,
  "åºķæ°Ķ": 116279,
  "æ¬£åĸľ": 114434,
  "INGER": 76280,
  "-m": 1448,
  "áĴ¼": 149273,
  "ĠSpielberg": 93616,
  "Ġstitching": 79131,
  "_MEM": 13209,
  "ĉscene": 75666,
  "åħ¨ä¸ĸçķĮ": 105546,
  "Thought": 84169,
  "×ķ×Ĺ×ĵ": 125236,
  "(nameof": 22886,
  "à¹Ģà¸£à¸·à¹Īà¸Ńà¸¢": 142873,
  "ĠParl": 94887,
  "Ġoperand": 27213,
  "×Ķ×Ļ×Ļ×ª×Ļ": 142856,
  ",ev": 81592,
  "ĠUh": 68049,
  "á¼£": 148592,
  "Ġprerequisites": 85258,
  "&view": 96648,
  "à¹ĥà¸Ļà¹Ģà¸£à¸·à¹Īà¸Ńà¸ĩ": 138503,
  "rite": 1247,
  "âĺ¥": 150702,
  "ploy": 2693,
  "ĠFantasy": 26484,
  "Ġnháº¡c": 131245,
  "reverse": 25903,
  ".binary": 60613,
  "<Key": 42003,
  "Ġà¸¡à¸²": 129739,
  "ç¤ºæĦı": 112267,
  "æĪ¿éĹ´": 102327,
  "=\\\"$": 56113,
  "å·¥ä½ľèĢħ": 106134,
  "ðĿĶ°": 150032,
  "ibName": 59344,
  "utow": 9616,
  "vier": 46716,
  "ä½ĵèĤ²åľ¨çº¿": 112644,
  "ĠPosition": 12380,
  "ndon": 85352,
  "Ġdart": 55967,
  "Ð¾ÑģÐ½Ð¾Ð²": 129527,
  "Ġfragment": 12289,
  "additional": 35499,
  "Ġfiles": 3542,
  "_sta": 79951,
  "Kate": 79369,
  "_ids": 8077,
  "Ġleft": 2115,
  "åħ¼ä»»": 115144,
  ".requestFocus": 72580,
  "åĻ¨ä»¶": 115336,
  "Ð¿ÑĢÐµ": 130398,
  "appable": 86384,
  "_UC": 80314,
  "ATFORM": 28784,
  "èªł": 112528,
  "ë¹ħ": 144500,
  ".ViewModels": 38518,
  "ĠJButton": 27117,
  "éĨĲ": 121738,
  "Ġeng": 2922,
  "Ġpert": 18212,
  "×¢×Ķ": 124684,
  "Ġmovable": 82579,
  "tag": 4578,
  "thÃ©": 131157,
  "ex": 327,
  "ProgressHUD": 46146,
  ".abs": 14572,
  "Ġchá»©ng": 128977,
  "å£²ãĤĮ": 140382,
  ".temp": 32669,
  "à¸Ńà¸¸à¸Ľà¸ģà¸£": 131312,
  ".j": 1169,
  "UIAlertAction": 56439,
  "äİ": 103910,
  "nels": 35427,
  "ĠSid": 33889,
  "ponsor": 30241,
  "Ġcontiene": 80433,
  "woman": 22028,
  "ĉNdrFc": 70564,
  "ĠIDs": 28360,
  "ĠsÄ±nÄ±f": 135965,
  "×Ķ×ķ×¦": 141303,
  "_Width": 77609,
  "âĻĢâĻĢâĻĢâĻĢ": 86939,
  "Ġpriority": 10619,
  "_CONFIG": 12568,
  "liner": 61798,
  "×Ļ×§×¨": 125982,
  "tal": 50877,
  "çĶµåĬ¨": 100931,
  "Ak": 55802,
  "íıīê°Ģ": 134954,
  "endors": 32885,
  "Ġidentical": 19516,
  "ĠcrÃ©ation": 80839,
  "ulative": 22160,
  "æ¸¸æĪıè£ħå¤ĩ": 107730,
  "âĽŁ": 148549,
  "ĠAu": 32050,
  "Ġlawmakers": 25081,
  "_aliases": 90233,
  "ëĵĪ": 144462,
  ".organ": 50172,
  "Ġancestral": 77671,
  "ĠTHEORY": 29657,
  "ï¼Ĵï¼Ĳ": 80091,
  "å°ĨæĮģç»Ń": 112470,
  "å¤§æĸ¹": 108935,
  "ĠPhD": 29561,
  "Ġgiorn": 59010,
  "Ġdilig": 38287,
  "Ġtough": 11045,
  "Ġ------------------------------------------------------------------------Ċ": 96581,
  "ç¡«": 103437,
  "à¹Ģà¸Ķà¸·à¸Ńà¸Ļ": 128948,
  "×ĸ×ķ": 128625,
  "ĠtakÄ±m": 131967,
  "æĪĲä¸ºäºĨ": 104989,
  "ĠDevelopment": 10816,
  ".templates": 76107,
  "Ġredraw": 56259,
  "×¦×Ļ": 124263,
  "ailure": 9373,
  "ĠMosque": 98931,
  "åĸĦ": 99618,
  "ëĿ°": 148637,
  "-release": 44724,
  "azole": 75901,
  "©½": 101867,
  "iates": 42298,
  "Numeric": 36296,
  "ä¸Ģçº¿": 102194,
  "viously": 18281,
  "ĠCena": 88563,
  "ê¸ģ": 145221,
  "åĪ¶": 43316,
  "orz": 67323,
  "kol": 51452,
  "æįº": 119398,
  "Ġfseek": 79262,
  "fait": 63865,
  "çİ°ä»£åĮĸ": 104437,
  "ĠPg": 97265,
  "Ġ[=[": 90297,
  "Ġsignals": 17289,
  "Ã¸": 6151,
  "ocha": 58729,
  "ĠSOUTH": 79615,
  "FB": 16208,
  "ĠMSD": 71395,
  "ä¸»åĬ¨æĢ§": 117072,
  "Asian": 67440,
  "èĦĤèĤª": 105349,
  "kowski": 70124,
  "å¤§å®¶": 99466,
  ".Task": 28258,
  "âĻ²": 148323,
  "-figure": 98996,
  "ØŃØ§Ø³Ø¨": 138385,
  "EC": 7498,
  "ĠWater": 9959,
  "å¸®å¿Ļ": 106128,
  "Ġoutcome": 15274,
  "åħ«ä¸ª": 111565,
  "ç®¡å§Ķä¼ļ": 103614,
  "ĠÑģÑĤÑĢÐ¾ÐºÐ¸": 92714,
  "çļĦæĪĲæľ¬": 109679,
  "é¤ĺ": 111812,
  "Ġcinnamon": 50892,
  "Ð»Ð¸Ð¼": 135757,
  "Ġ//čĊ": 24265,
  "_DEV": 26419,
  "Ø¸Ùħ": 125362,
  "Ġ×ķ×Ĵ×Ŀ": 129319,
  "ĠThrowable": 22124,
  "recht": 47631,
  "!</": 18685,
  "Ġbrit": 37330,
  "Ġguarante": 15389,
  ".avi": 84552,
  "Ġanchor": 17105,
  "urnal": 62450,
  "Ġmasturb": 29343,
  "_arr": 11210,
  "BoundingClientRect": 63113,
  "Ã¡b": 58560,
  "ĠJanet": 53665,
  "Ġacoustic": 44066,
  "ĠBitte": 84276,
  "(bin": 49669,
  "Ġimmense": 37783,
  "æĶ¶çĽĬçİĩ": 108984,
  "éĺĦ": 120483,
  "è½¨": 100319,
  "âıĥ": 149655,
  "ãģĹãģŁãĤĤãģ®": 138954,
  "ieval": 31886,
  "\\Security": 57392,
  "logical": 30256,
  "Ã¼ÄŁ": 124958,
  "éªĲ": 120828,
  ".updated": 44606,
  "ĠJoshua": 39492,
  "ecome": 51421,
  "ĠRoyal": 16194,
  "ĠÐ·Ð°Ð¼ÐµÑĤ": 137275,
  "Ġrug": 28642,
  "éŁ³": 78685,
  "ĠAlberto": 64681,
  "à¸ªà¸§à¸¢": 126701,
  "ãģĤãģªãģŁ": 126855,
  "Keys": 8850,
  "æī§æĦı": 115310,
  "Ġinvasive": 52254,
  "ĠÐ°Ð´Ð¼Ð¸Ð½Ð¸ÑģÑĤÑĢÐ°ÑĨÐ¸": 142745,
  ".fm": 70485,
  "Ġchecklist": 52573,
  "(\"\"),": 86076,
  "fono": 21812,
  "ð¦ĺ": 149963,
  "_ident": 38399,
  "Ġuphol": 69204,
  "ĠmM": 83217,
  "âİª": 149037,
  ">\"+Ċ": 83522,
  "ì´Ľ": 144643,
  "Ġ//ĊĊ": 34985,
  "Ġhue": 39040,
  "onto": 9935,
  "\"They": 31308,
  "ola": 7924,
  "áĥ«": 148547,
  "Ġyourselves": 57896,
  "å±ķå¼Ģ": 104324,
  "ãĻ": 101873,
  "\":Ċ": 4660,
  "éĹ®åĢĻ": 113940,
  "vron": 29479,
  "ttl": 62858,
  "éĢĤçĶ¨": 105255,
  "#": 2,
  "é²¢": 121649,
  "ÑĥÐ²ÐµÐ»Ð¸ÑĩÐµÐ½": 139720,
  "çİ°éĺ¶æ®µ": 113315,
  "æĪĲä¸º": 99787,
  "Ġappreciation": 34896,
  "ĠCommercial": 27843,
  "Ġinterrog": 36439,
  "ĠØ§ÙĦØ£ÙĦÙħ": 142734,
  "åı¯ä»¥æĽ´å¥½": 117443,
  "Declaration": 24489,
  "_eg": 90209,
  "ounced": 19453,
  ";o": 93449,
  "ĠChÃºa": 132756,
  "'])->": 32991,
  "ĠCel": 46543,
  "VE": 4491,
  ".sendStatus": 71280,
  "igua": 90746,
  "¾": 122,
  "å·³": 118778,
  ":**": 66963,
  "ãĤ¤ãĥ³ãĥī": 141143,
  "ĠReflect": 34598,
  "Ġoperative": 63785,
  "_since": 56262,
  "Ġautom": 5006,
  "adi": 2767,
  "Ġcognitive": 24675,
  "ðĴģº": 151271,
  "_inputs": 28557,
  "grey": 34571,
  "Ġpenc": 65274,
  "ãģĻãģ¹ãģį": 137784,
  "çĽ¸äºĴ": 104225,
  ".Observable": 54843,
  "Ġ=Ċ": 4035,
  "pling": 11863,
  "ĠJae": 95560,
  "Ġbot": 10924,
  "Actualizar": 95837,
  "Ġescaping": 52654,
  "æĬĢæľ¯çłĶåıĳ": 113358,
  "ä½ıåľ¨": 106789,
  ".lastname": 72637,
  "å¸ĮæľĽéĢļè¿ĩ": 111789,
  "è·Ľ": 119431,
  "resent": 2695,
  "-confidence": 90880,
  "ĠSelectList": 52902,
  "ĠUnityEditor": 75417,
  "_origin": 34043,
  "Ġåº": 95522,
  "_OD": 60426,
  "çĽ¸åħ³çļĦ": 105470,
  ".hour": 46853,
  "æ¶Īè´¹éľĢæ±Ĥ": 117011,
  "éª¢": 121541,
  "indices": 14987,
  "ĠCircular": 45761,
  "å¸ĥ": 51827,
  "çĴ±": 123595,
  "_auc": 75080,
  "*f": 54461,
  "fer": 802,
  "åħ¨æĿĳ": 112214,
  "Ġinstanceof": 8083,
  "å½ķåıĸ": 105416,
  "_CUR": 33834,
  "Ġdurable": 26128,
  "AAF": 71038,
  "æļ´éľ²": 107047,
  "parison": 35542,
  "rients": 31830,
  "ĠNodeList": 98711,
  "ÎĲ": 147088,
  "ï±¯": 147765,
  ".RecyclerView": 35633,
  "ĠfrÃ¦kke": 98403,
  "-zone": 77763,
  "å¢ŀåĢ¼ç¨İ": 109742,
  "_gener": 71963,
  "Mas": 43649,
  "Ġexaminer": 83632,
  "ĠBuddh": 49518,
  "æĢ¡": 106433,
  "getti": 96372,
  "-night": 44327,
  "Ġspread": 8865,
  "Ġpreced": 16201,
  "ĠRep": 3321,
  "Ġgrouped": 40041,
  "èįĸ": 122416,
  "ĠLite": 40865,
  "å²½": 122313,
  "ignant": 58010,
  "ì¡Ī": 149786,
  "æľįåĬ¡è´¨éĩı": 111333,
  "Ġ-------------------------------------------------------------------------Ċ": 80550,
  "ĉLabel": 82126,
  "Ġçī": 64388,
  "sorted": 28298,
  "THR": 98647,
  "attles": 90127,
  "Ġcoupons": 35298,
  "rowable": 14941,
  "InputLabel": 96765,
  "æĮĤ": 99935,
  "-rec": 59172,
  "Ġpreschool": 60805,
  "Ars": 82973,
  "ĠPROVIDED": 16525,
  "\\xd": 52512,
  "å¼Ģåıĳ": 100013,
  "çĶµè§Ĩ": 100234,
  "Apollo": 95909,
  "é¦Ļåĳ³": 109008,
  "Ġdonors": 32049,
  "å¤§çĪ·": 110136,
  "Ġutilizado": 98533,
  "ĠDot": 31262,
  "ĠShane": 49975,
  "ObjectName": 37748,
  "æĸ¶": 123635,
  "ç½ĳæł¼": 111681,
  "×ķ×Ķ×¨": 137664,
  "ç¿Ī": 122801,
  "Ġcoercion": 77142,
  "Tick": 22213,
  "pÃµe": 139566,
  "~,": 54497,
  "ĠyaÅŁadÄ±ÄŁÄ±": 141665,
  ".mag": 90676,
  "ĠBAB": 59311,
  "(DEBUG": 52792,
  "ĉMy": 78469,
  "éļ»": 110048,
  "ĠUnicode": 35897,
  "à¹Ĥà¸Ĺà¸£à¸¨à¸±à¸ŀ": 136486,
  "ĠAgreement": 22499,
  "Ġluder": 94998,
  "ĉnames": 93940,
  "@\",": 18384,
  "ä¿¡çĶ¨åį¡": 106523,
  "ç»¼åĲĪ": 99799,
  "ÐµÐ½ÑĮ": 51329,
  "Ġsun": 7015,
  "Ġlacked": 48001,
  "ibili": 85948,
  "âľĮ": 144837,
  "Ġtá»«": 94576,
  "exercise": 63462,
  "å¹´åĨħ": 106069,
  "ÐµÐ½Ñĭ": 78586,
  "Ġiets": 88333,
  "Ġinvitation": 28688,
  "å¥½åĲĥ": 106678,
  "-community": 89786,
  "×¢×©×Ķ": 130779,
  "ç®¡çĲĨ": 39352,
  "Ġherein": 35781,
  "Gro": 76335,
  "entities": 10499,
  "æµ·": 55135,
  "struction": 3024,
  "lig": 7708,
  "Henry": 63363,
  "Ø§Ø³Ø±": 140547,
  "Ġguide": 8474,
  "mÃ¡ticos": 143644,
  "Manifest": 38495,
  "Ġworkbook": 45155,
  "ĠWang": 28246,
  "ä»Ĭãģ®": 133475,
  "Ġrecalling": 88646,
  "Ġcui": 37944,
  "è¾«": 119123,
  "ç»Łè®¡å±Ģ": 112997,
  "_fwd": 81083,
  "Ġblender": 61795,
  "Ġerw": 66386,
  "Ġshuffled": 74271,
  "çķħéĶĢ": 112338,
  "ĠIndigenous": 46003,
  "chor": 6150,
  "×©×ģ": 137662,
  "éģĩåĪ°": 104011,
  "×ŀ×Ļ×ª×Ļ": 127807,
  "Ġextracts": 47962,
  "conscious": 63489,
  "ĠNonetheless": 55633,
  "Ã¤tzlich": 86759,
  "èĺ¸": 119039,
  "Ġ\"\\Ċ": 93317,
  "Ġ×ŀ×Ĺ": 125540,
  "éħ¾": 123325,
  "Ġ\"~": 51269,
  "Reset": 14828,
  ".paths": 65345,
  "Ġemojis": 99066,
  "æļĮ": 121192,
  "Cab": 98199,
  "ï¯³": 149851,
  "ĠØ§ÙĦØ¬ÙĪ": 130156,
  "beiten": 50656,
  ".notice": 97816,
  "åįĬå¤ľ": 111001,
  "(pts": 83921,
  "æĽ´": 33126,
  "ÊĶ": 146186,
  "à¸ªà¸ĸà¸´": 143502,
  "Ġsatellite": 23210,
  "Ġsuspects": 29761,
  "çģ«åĬĽ": 114763,
  "ATERIAL": 44407,
  "rÃ¤": 125245,
  "è¿ĻçĤ¹": 107864,
  "Ġbatt": 14754,
  "/sh": 14688,
  "èıĬ": 103155,
  "à±": 52798,
  ".Headers": 43968,
  "çª£": 121320,
  "íķķ": 150320,
  "unc": 1347,
  "å¢ŀéķ¿çİĩ": 112687,
  "èµ·æŃ¥": 107381,
  "ä¼¤åı£": 109662,
  "_GUID": 58648,
  "ãģ¤ãģ¾ãĤĬ": 135446,
  "Ġapparent": 9981,
  "ãģĳãĤĮ": 131503,
  ")\"},Ċ": 96773,
  "ĉsetTimeout": 48402,
  "Ġencouragement": 50375,
  "ĠQU": 25999,
  "TintColor": 68782,
  "å¯¹ä¸įèµ·": 109024,
  "æ»¨æµ·": 110873,
  ".between": 96383,
  ".onChange": 40985,
  "æħĭ": 101008,
  "orda": 57080,
  "ĠSlim": 44391,
  "ĠBlur": 98160,
  "á»": 4973,
  "[])Ċ": 24377,
  "CLUSION": 98669,
  "ĠØ§ÙĦØ¹Ø³Ùĥ": 140420,
  "Injector": 61836,
  "Ġvisitors": 15255,
  "Ġseller": 22856,
  ".authService": 63827,
  "_reports": 64423,
  "Ġstupid": 18253,
  "Ġmutant": 60518,
  "Ð½Ðµ": 78762,
  "ç®Ĺæĺ¯": 101473,
  "utation": 22705,
  "Ġqueens": 68997,
  "Ġ//=": 95517,
  ".mult": 51513,
  "Êľ": 145692,
  "ëĨ¨": 144602,
  "Ġ×©×Ľ×ľ": 132974,
  "æĸ°å¼Ģä¼łå¥ĩ": 105305,
  "åĩºçİ°äºĨ": 104423,
  "ĊĠĠĠĠĊ": 7213,
  "æįĥ": 120305,
  "meal": 41780,
  "ĠBoeing": 41859,
  "ĠdÃ¼rfen": 141489,
  "(Encoding": 85177,
  ".Keyword": 61225,
  "Ø¬Ø³Ùħ": 141620,
  "ĠÄĳá»ĳc": 133796,
  "Ġgradient": 20169,
  "Ġignorant": 46980,
  "kk": 19196,
  "Ð¾Ð·Ð²ÑĢÐ°Ñī": 58297,
  "ight": 491,
  "(Console": 33645,
  "Ġreturning": 13451,
  "Ġ()čĊ": 69540,
  "quential": 15838,
  "_WINDOWS": 71425,
  "çĽ®ãģ«": 133944,
  "ĠLV": 39169,
  "Ġpaperwork": 44631,
  "ĠCALL": 25752,
  "éĭĪ": 121679,
  "ĠÙĤÙĪÙĦ": 137436,
  "ï³Ĭ": 145917,
  "æĺİç¡®": 100692,
  "éģİç¨ĭ": 103680,
  "sphere": 87410,
  "nos": 36391,
  "æł¸åĩĨ": 110610,
  "Ã¼z": 78591,
  "-processing": 69193,
  "×ª×ĳ×¨": 143563,
  "Ġforesee": 56691,
  "èµ¶": 99970,
  "OMIC": 51793,
  "Ġscare": 42930,
  "interest": 12724,
  "ampton": 42001,
  "Ġnineteen": 93835,
  "ìĨĢ": 150976,
  "ĠBMC": 81706,
  "èµ°è·¯": 109214,
  "ðŁĴ¶": 146959,
  "-green": 38268,
  ".âĢĿ": 1987,
  "_Connection": 85002,
  "ÙħÙĪØ§Ø¯": 139241,
  "inin": 64444,
  "ĠìŀĪëıĦë¡Ŀ": 136303,
  "ignty": 42743,
  "ï®ŀ": 149834,
  "éķĹ": 121775,
  "æļ«": 116811,
  "ĠBoy": 16180,
  "Ġcycles": 24484,
  "ĠJasmine": 81352,
  "ĠCapability": 98551,
  "á¿ĸ": 145577,
  "æĬ¥ä¸ļ": 113252,
  "ĠBos": 27971,
  "oooo": 25761,
  "ĠButtons": 52700,
  "Ġexpresses": 60020,
  "ä¸ĢæŃ¥ä¸ĢæŃ¥": 117719,
  "Ġrms": 79994,
  "ÑĥÐ»ÑĮ": 131376,
  ".AutoSizeMode": 83800,
  "igon": 73881,
  "âķ£": 146109,
  "Ġsubsidi": 31519,
  "Ġom": 7861,
  "Ġave": 41638,
  "ã¬ļ": 123539,
  "íĸĦ": 144967,
  "ĠProfessional": 21237,
  "Ġbrand": 6741,
  "posts": 12664,
  "Ġethereum": 84522,
  "ĠinitWithNibName": 96708,
  "Ġops": 27132,
  "ä»ĸä»¬éĥ½": 111262,
  "èĵĿçīĻ": 116463,
  "ĠFAT": 67953,
  "EP": 9197,
  "_generated": 67313,
  "_level": 8274,
  "Ġcruelty": 53580,
  "_body": 14114,
  "ĠØ§ÙĦØ¬Ø¯ÙĬØ¯": 131424,
  "lists": 17575,
  "á»©t": 133592,
  "Ûŀ": 144518,
  "Ġpytest": 27764,
  "mÄ±yor": 135207,
  "æ±ģ": 102514,
  "ĠÙģÙħÙĨ": 139400,
  "iy": 16220,
  "ĠPeggy": 85552,
  "Ġspherical": 64151,
  "(Request": 12951,
  "ãĤ±ãĥ¼ãĤŃ": 142732,
  "bs": 1279,
  "ĠcÆ°á»Ŀi": 130692,
  "Ġìĸ´ëłµ": 143337,
  "å©ķ": 119080,
  "ĠCrypt": 37447,
  "Ø£Ø³ÙħØ§Ø¡": 139986,
  "Ġsiguiente": 54901,
  "×ŀ×Ĵ×ķ": 132582,
  "_bet": 91745,
  "Ġlookout": 70915,
  "ÙĨ": 11798,
  "Autoresizing": 47286,
  "Ġ×ľ×ŀ×©×ľ": 132967,
  "ĠDIS": 11977,
  ".initializeApp": 82735,
  "Ġendregion": 85017,
  "meric": 2117,
  "Ġdelim": 63209,
  "ĠØ§ÙĦÙħØ§ÙĦÙĬØ©": 132071,
  "ĠEvery": 7209,
  "They": 6865,
  "Endpoint": 27380,
  "SOURCE": 42998,
  "ĠGF": 40026,
  "stalk": 89749,
  "åĵ¨": 109760,
  "UDIO": 21332,
  "ĠOverrides": 46083,
  "éªĭ": 120544,
  "ĠHyundai": 59840,
  "æĹ¥æĬ¥éģĵ": 111485,
  "(source": 12437,
  "illes": 30255,
  "rz": 51960,
  "Ġonce": 3055,
  "Ġstub": 13633,
  "Ġopportun": 85854,
  "çļĦæĢ§æł¼": 109483,
  "--------ĊĊ": 70818,
  "nicas": 73346,
  "ìŃĲ": 146244,
  "çķľç¦½": 115379,
  "detalle": 84118,
  "rob": 22740,
  "ATS": 49107,
  "ĠgrÃ¶ÃŁer": 140370,
  "ãĬ¦": 150155,
  "ä½¿çĶ¨çļĦ": 105899,
  "è£ģå®ļ": 113824,
  "ç§¯æŀģæİ¢ç´¢": 110965,
  "ĠAn": 1527,
  "asket": 9553,
  "CLUSIVE": 54036,
  "çĥŃéĩı": 108461,
  "ĠCheng": 56707,
  "ĠVent": 26407,
  "GPU": 49891,
  "Shield": 84099,
  "near": 51659,
  "move": 3397,
  "èĤĥ": 100927,
  "ĠSpartan": 76186,
  "[from": 78330,
  "Shoot": 85195,
  "çļĦä¸ĸçķĮ": 105484,
  "JSON": 5370,
  "alking": 29755,
  "Ġcome": 2525,
  "Ġhelicopter": 35025,
  "Ġwedge": 63685,
  "ä¸ĸä»£": 114285,
  "ĠÑģÐ¾Ð¾Ð±Ñī": 66021,
  "Æĭ": 149475,
  "çļĦéĢļçŁ¥": 105757,
  "Ġstalking": 81795,
  "Ġchanged": 5497,
  "_Report": 76428,
  "Ġowns": 24256,
  "âį¨": 151640,
  "represented": 52759,
  "ÑĦÐ¾Ð½": 132082,
  "è¾¹": 99319,
  "Ġ{/*": 17234,
  "Nu": 60335,
  "ĠNr": 69093,
  "æĭ¼å¤ļå¤ļ": 114547,
  "(assign": 66882,
  "ĠÑĥÑģÑĤÐ°Ð½Ð¾Ð²Ð»ÐµÐ½": 133838,
  "okane": 79586,
  "çĭº": 120461,
  "TOR": 49658,
  "ãģ«åħ¥ãĤĭ": 140712,
  "Ġdestroyer": 95189,
  "ĠBehind": 42374,
  "El": 6582,
  "ĠĊ": 715,
  "oenix": 18399,
  "ìįħ": 148079,
  ".Experimental": 90320,
  "ãĤıãĤĬ": 126061,
  "çģµæķı": 116580,
  "åĹ²": 121207,
  "åĺ¿": 101834,
  "èŀį": 99368,
  "tones": 91645,
  "Ġzones": 25395,
  "/use": 62272,
  "Ġknew": 6876,
  "ovenant": 38602,
  "Ġorganizations": 11104,
  "à¸ļà¸±à¸Ļà¹Ģà¸Ĺà¸´à¸ĩ": 141394,
  "Ġcreamy": 46885,
  "åİ¿åħ¬å®īå±Ģ": 114579,
  "ĠBundes": 46307,
  "è¡¡éĩı": 107613,
  ".Today": 72672,
  "é³ł": 123768,
  "Paren": 83997,
  "áĪķ": 148989,
  "çµĲ": 100331,
  "ä¼ģä¸ļæıĲä¾Ľ": 111371,
  "Ðĵ": 37114,
  "Ġ}Ċ": 456,
  "Ġlogically": 73045,
  "ðĿĳĲ": 145797,
  "Ġconfirm": 7683,
  "×Ĺ×ĸ×Ļ×¨": 137570,
  "ĠEr": 9740,
  "æ£¹": 120887,
  "ĠÐ½Ð°ÑĢÐºÐ¾": 141825,
  "Ġhere": 1588,
  "ä¿Ŀå¯Ĩ": 107534,
  "ĠCentral": 10684,
  "Ġhenne": 91617,
  "imilar": 78862,
  "ĠDream": 17829,
  ".hand": 34338,
  "ëĽ°": 144118,
  "Ġaccurate": 13382,
  "ä¾Ŀæīĺ": 104539,
  "erior": 14575,
  "/buttons": 72180,
  "placement": 16101,
  "ĉRender": 86813,
  "ĠBDS": 59827,
  "âŁ¡": 150720,
  "drawing": 80849,
  "áĬĥ": 150498,
  "é©¬äºĳ": 109975,
  "accine": 88021,
  "å°ıä¼Ļä¼´": 103291,
  "Accordion": 71603,
  "<textarea": 66264,
  "Ġ[]:Ċ": 96021,
  "looking": 20363,
  "ĠRoland": 57806,
  "ãģĭãĤĤãģĹãĤĮ": 125788,
  "ucciÃ³n": 67736,
  "æĸ°éĻĪ": 116882,
  "Ġpropel": 88383,
  "setq": 32526,
  "ÐµÐ½": 5259,
  "Ġhumanities": 93035,
  "irting": 66939,
  "éĩĳé¢Ŀ": 80094,
  "ç¦ħ": 105602,
  "/cal": 91734,
  "Ġzob": 128165,
  "ì¯": 124745,
  "Ġì°¸ê³ł": 142616,
  "è´«è¡Ģ": 115722,
  "çĵŀ": 122668,
  "Iraq": 96718,
  "ĠÐ¿ÑĢÐµÐºÑĢÐ°Ñģ": 137062,
  "éļĲ": 99707,
  "è£ħåį¸": 117702,
  "ĠÐ´": 7796,
  "resse": 21797,
  "æĸ½å·¥": 100686,
  "crets": 52710,
  "ÑıÐµÐ¼": 89775,
  "Neg": 47800,
  "Calculate": 47866,
  "Ø¹ÙĦØ§ÙħØ§Øª": 142748,
  "à¸Ľà¸ıà¸´à¸ļà¸±à¸ķà¸´": 131379,
  "Ġà¸ŀ": 126473,
  "aunch": 18423,
  "Clin": 67033,
  "æĹłäººé©¾é©¶": 114992,
  "kses": 54009,
  "lli": 39976,
  "ç§ĳæĬĢæĪĲæŀľ": 113938,
  "\\E": 19381,
  "ë»¡": 148882,
  "Ġthoughtful": 42666,
  "Ġvegetables": 23880,
  ".inflate": 26371,
  "CSS": 33658,
  "_extractor": 89821,
  "!')Ċ": 36180,
  "Úª": 145613,
  "_DECL": 22732,
  "ĠKumar": 40140,
  "(Transaction": 76627,
  "ð«ĽŃ": 123065,
  "ogs": 26307,
  "æ¦ľ": 100108,
  "ijke": 50405,
  "Ġcomparatively": 70461,
  "agination": 10353,
  "Ġinstantiate": 40902,
  "åĲįåŃĹ": 101419,
  "_h": 1523,
  "ðŁ¤£": 144736,
  "Photo": 10463,
  "ä¸ı": 119541,
  "ëĬł": 145150,
  "iance": 5284,
  "äº²çĪ±çļĦ": 110834,
  "ÑĤÐ¾": 24634,
  "ç¼": 24864,
  "Ġsexdate": 61902,
  "ĠSox": 38545,
  "-e": 5655,
  "ĠprÃ¡tica": 134801,
  "ãģĨãģ¾": 138247,
  "Ġwicked": 43977,
  "stone": 10812,
  "é«ĺæ¸ħ": 107245,
  "ç¹ģåįİ": 109462,
  "ÑĴ": 145454,
  "ĠSecrets": 52079,
  "ï½ĳ": 145529,
  "Certainly": 95456,
  "ĠUNUSED": 68001,
  "iode": 94726,
  "/avatar": 58140,
  "ĠâĶľ": 71678,
  "ĠHust": 85450,
  "ziel": 64177,
  "ĠComedy": 43751,
  "ĠVia": 44799,
  "_predicate": 97474,
  "ĠFINSEQ": 70127,
  "ĠìĹ°ê²°": 141819,
  "vehicle": 19764,
  "ìķĮ": 144135,
  "phys": 41205,
  "Ġplastic": 12188,
  "æĬĬå®ĥ": 105744,
  "Ġhandled": 17608,
  "_rl": 98441,
  "ĠResponsibility": 77612,
  "']))ĊĊ": 87586,
  "ercial": 7991,
  "ëĦĴ": 147550,
  "orum": 33006,
  "back": 1419,
  "ĠMarble": 72521,
  "structors": 91366,
  ".numericUpDown": 71592,
  "ĠkarÅŁ": 141771,
  "ĠMetadata": 33589,
  "ãģıãĤĬ": 126124,
  "Thirty": 91602,
  "ĠpaylaÅŁ": 131056,
  "_math": 65561,
  "Ġsir": 27048,
  "ĠToro": 83980,
  "_ctx": 15147,
  ".Details": 87719,
  "Ġvar": 762,
  "ĉselect": 38010,
  ")||(": 74342,
  "ĠnÃ©": 37505,
  "å¤ªå¹³æ´ĭ": 109068,
  "Ġgoggles": 93990,
  "×¨×ķ×Ł": 126447,
  "_ft": 41572,
  "ĠÐºÑĢÐ°ÑģÐ¸Ð²": 135329,
  "ift": 2085,
  "jumbotron": 89334,
  "ãģĿãģĹãģ¦": 79439,
  "å¦ģ": 119649,
  "=\"-": 23948,
  "Ġtyp": 3582,
  "è·Ĳ": 121196,
  "Ø±ÙĬ": 123832,
  "atrigesimal": 42487,
  "ĠaddButton": 88196,
  "Ġrepe": 6219,
  "Ġalm": 89484,
  "\"]');Ċ": 95492,
  "é£ŀè¡Įåĳĺ": 115543,
  "ĠFew": 42915,
  "ĠNSCoder": 68962,
  "Ġdiagrams": 46187,
  ".Username": 42777,
  "ĠÐ°": 20396,
  ".classList": 13863,
  ".hashCode": 29166,
  "Ġserializers": 38221,
  "uktur": 84956,
  ".Adam": 69118,
  "Ġkinda": 33390,
  "â®": 126181,
  "åħ¨çĲĥæľĢå¤§": 115026,
  "è§Ń": 123478,
  "'/": 20177,
  "Ġfled": 28910,
  "Ġfades": 86409,
  "èĸ°": 119221,
  "é²ģè¿ħ": 113183,
  "å©ī": 106783,
  "(val": 9098,
  "çĶµéĺ»": 115704,
  "ĠIO": 6429,
  "ĠÙĬÙĪÙĨ": 135332,
  "ÅŁek": 127553,
  "ĠDesigned": 47425,
  "à¸ģà¸³à¸ģà¸±à¸ļ": 141817,
  "×¡×Ĵ": 138804,
  "lobs": 68164,
  "=$": 3186,
  ".tw": 14701,
  "indered": 82203,
  "Ġì¢Ģ": 130572,
  "èĴĹ": 121139,
  "inish": 18176,
  "äº¤è°Ī": 111640,
  "ç·ļä¸Ĭ": 116190,
  "ì¸ķ": 149793,
  "ĠScene": 17494,
  "eldo": 83455,
  "Ġtwins": 43636,
  "Overview": 41044,
  "Ġ$.": 8672,
  "andler": 5252,
  "Ġpokemon": 37651,
  ".jet": 30264,
  "ĠPoints": 20725,
  "Ġcousin": 35171,
  "ĠPatt": 44303,
  ".connector": 63513,
  "ĠDeal": 26263,
  "Ð¸ÑĨÐµ": 133225,
  "Ð¸ÐºÐ¾Ð²": 133428,
  ">;": 65795,
  "åģ¥åº·äº§ä¸ļ": 115061,
  "Ġtribe": 33571,
  "à¹Ĥà¸ķà¹ī": 142607,
  "ampions": 9132,
  "=i": 21397,
  "Ġnoch": 17790,
  "Oct": 18053,
  "ALTER": 48096,
  "ĠGK": 97409,
  "usr": 7063,
  ".setCancelable": 98847,
  "èģĮä¸ļæĬĢèĥ½": 115632,
  "çĶµè§Ĩæľº": 115281,
  "ĠVolk": 42514,
  "}},": 38154,
  "Ġdomaine": 95739,
  "à¸Ħà¸£à¸±à¹īà¸ĩà¸Ĺà¸µà¹Ī": 136381,
  "extAlignment": 58749,
  "ĠAbs": 22080,
  "usalem": 24260,
  "Ġago": 4134,
  "Ù¬": 144304,
  "Ġsewage": 71117,
  "à¸ªà¹Ħà¸ķà¸¥à¹Į": 136328,
  "bsite": 3222,
  "Ġsighting": 92679,
  "ĠEthics": 49181,
  "ounsel": 93641,
  "å¤§å®Ĺ": 117185,
  "-->čĊ": 38942,
  "æ³¸å·ŀ": 116899,
  "æłĸ": 110122,
  "Ġriots": 59996,
  "ðĿĸī": 149891,
  "(Msg": 98926,
  "Ġcamps": 28035,
  "ðŁĽ¬": 149209,
  "Ġcrate": 17717,
  "Ġsheriff": 39739,
  "Ġpublished": 4652,
  "ichtet": 89730,
  "åĽļ": 113372,
  "xE": 12606,
  "ì°Į": 144085,
  "ĠAnalog": 63446,
  "THON": 41499,
  "giatan": 78209,
  "ĠÙĦØ£ÙĨÙĩ": 134270,
  "manda": 35545,
  "ä½½": 122334,
  "\"';": 77660,
  "Ġconfronted": 40682,
  ".findElement": 26295,
  ".dao": 15910,
  "æ°į": 122096,
  "ì°¢": 144953,
  "gÃ¼n": 133372,
  "/Search": 78893,
  "ï¼ĮĊĊ": 75048,
  "ilater": 90795,
  "ĠGon": 79706,
  "Monad": 86933,
  "èĭ«": 119817,
  "èĩ´åĬĽ": 102368,
  "Framework": 14837,
  "ĠJAN": 83487,
  "Ġtraditions": 30906,
  "(X": 7644,
  "ĠÐ¼ÐµÑģÑıÑĨÐµÐ²": 138693,
  "_owned": 51973,
  "ĠFighting": 49317,
  "×©×ľ": 124189,
  "ä¸»æľº": 110293,
  "èĶĵ": 103361,
  "exterity": 58816,
  "ðŁĵĿ": 145795,
  "ĠCity": 4311,
  "Ġxr": 38670,
  "Ġvariability": 53609,
  "RenderTarget": 70747,
  "aira": 89780,
  "ä½ľçĤº": 108318,
  "åĪĹä¸º": 113507,
  "Ġcemetery": 58304,
  "Ã¼k": 39857,
  "DebugEnabled": 68768,
  "]:=": 90551,
  "åĳ½é¢ĺ": 111660,
  "ĠÐºÐ¾ÑĢ": 66869,
  "ĠÑģÑĢÐ°Ð²": 134855,
  "ë³µì§Ģ": 134553,
  "ĠØ§ÙĦØŃØµÙĪÙĦ": 134516,
  "ÙĢÙĢÙĢÙĢ": 127439,
  "lname": 50228,
  "¼": 120,
  "æī§æķĻ": 115952,
  "trust": 56655,
  "ĉPage": 65439,
  "ĠÑģÑĢÐµÐ´ÑģÑĤÐ²Ð°": 133198,
  "ffiti": 55326,
  "æµĵæµĵ": 117565,
  "à´ħ": 148904,
  "Ġtáº¡o": 128425,
  "');ĊĊ": 3755,
  "Ġcorrelate": 80484,
  "ĠInitiative": 37656,
  "_fire": 45772,
  "(device": 17848,
  "Ġåı": 26853,
  ".sample": 23882,
  "omencl": 88847,
  "_GEN": 42362,
  "ales": 3831,
  ".chat": 26123,
  "ĠFn": 50182,
  "_each": 32046,
  "iversary": 17577,
  "Ġngá»«ng": 139474,
  "ĠHolden": 86385,
  "Ġrespect": 5091,
  "Implement": 62980,
  ".pag": 72605,
  "_latitude": 80364,
  "Ġirrig": 52005,
  "ĠÑģÑĢÐ¾Ðº": 131561,
  "ï§Ĺ": 149257,
  ".addProperty": 70924,
  "_mgmt": 96014,
  "ĠØ§ÙĦØ£ÙħÙĬØ±ÙĥÙĬ": 134575,
  "ĠStatus": 8104,
  "[MAX": 18792,
  "à¸ģà¸£à¸¸à¸ĩ": 126156,
  "iku": 38242,
  ".LastName": 54549,
  "Ġregistrar": 61467,
  "ãģªãĤĵ": 124548,
  "ð«łĬ": 122385,
  "Ġgiáº¥c": 141374,
  "åĨħé©¬å°Ķ": 118633,
  "erk": 16754,
  "Ġbakeka": 81943,
  "Ġsold": 6088,
  "ĠÑĦÐ°ÐºÑĤÐ¾ÑĢ": 138786,
  "_STYLE": 41775,
  "?'ĊĊ": 86214,
  "ëŃĩ": 144779,
  "Ġxa": 71800,
  "_AC": 15500,
  "integr": 80729,
  "ðĿĻ·": 149172,
  "_Read": 38381,
  "ĠTough": 77054,
  "ĠWorksheet": 82631,
  "Ð¿ÑĢÐ¾Ð¼ÑĭÑĪ": 138620,
  "æĿ¥ä¸´": 108103,
  "åī§ç»Ħ": 116360,
  "later": 67576,
  "ÑģÐ»Ð°": 130328,
  "(hex": 44660,
  "ĠIntelligent": 77088,
  "_task": 12184,
  "ãĤµãĥŃãĥ³": 134065,
  "ÙħÙĲ": 131339,
  "çķĮç¬¬ä¸Ģ": 117483,
  "ĠApprec": 92821,
  "ë°°": 130609,
  "Ġdev": 3483,
  "ĠPhillip": 58709,
  "Ġiter": 5367,
  "Ġtimings": 84798,
  "ĠÅŁa": 130338,
  "è¯ģ": 33477,
  "--){Ċ": 49408,
  "_DATA": 7896,
  "åıĬæĹ¶": 100667,
  "utter": 6207,
  "Ġheap": 17364,
  "Ð°Ð»ÑĮÐ½": 124242,
  ".alpha": 23928,
  "icult": 3866,
  "ç³Łç³ķ": 109926,
  "Failed": 9408,
  "æľīä¸ĢçĤ¹": 111796,
  "Ġprincipally": 91281,
  "Ġsimilar": 4428,
  "Ð¸ÑĢÑĥ": 124979,
  "Ġtyre": 72928,
  "ãī¿": 150775,
  "_word": 13533,
  "å®ŀæĹ¶": 105143,
  "ð¡Ī½": 149353,
  "gabe": 61229,
  "Ġir": 6216,
  "learn": 12675,
  "Ġvoluntarily": 53423,
  "Ó¤": 148246,
  ".mesh": 43322,
  "Ġglimps": 93062,
  "Ġ$(\"<": 50134,
  "ĠÑģÐ»ÑĥÑĩ": 89126,
  "á¸¡": 148590,
  "Ġdatatype": 46634,
  "ï¨Ĩ": 150088,
  "éŁ³ä¹Ĳ": 101941,
  "æ°´æĻ¶": 108390,
  "_maximum": 93581,
  "æīī": 119149,
  "ç»Ħç»ĩå®ŀæĸ½": 110852,
  "ãģĮå¿ħè¦ģ": 131128,
  "à¸Ĭà¸¸à¸¡": 127509,
  ",a": 15012,
  "æ°¢èĥ½": 117735,
  "Ġcrust": 39612,
  "Ġagent": 8315,
  "ijkl": 59779,
  "=https": 51999,
  ".impl": 15295,
  "ĠLives": 39395,
  "ãĤ»ãĥĥãĥĪ": 132614,
  "FLOW": 46060,
  ".toString": 5070,
  "insics": 67102,
  "Ġleases": 72557,
  "Ġarist": 63738,
  "Ġwen": 37357,
  ".argsort": 94973,
  "Ġinsisting": 59627,
  "ĠÐºÐ¾ÑĤÐ¾ÑĢÐ¾Ð¼": 133669,
  "enton": 73972,
  "_at": 3752,
  "Ġ×ķ×Ľ×ľ": 132041,
  "illance": 18832,
  "æµĳèº«": 109464,
  "Ġmann": 37808,
  "ðŁĵĽ": 148394,
  "Ġcartridge": 50862,
  "äºĴåĭķ": 114507,
  "_internal": 23472,
  "æĪĸå¤ļ": 118174,
  "çĽĽåħ¸": 113677,
  "JNI": 57293,
  "ĠÑĢÐ°Ð´": 134296,
  "ðŁı¹": 148188,
  "Ġadvancements": 82687,
  "åı¯è§Ĥ": 111468,
  "ï»Ī": 145466,
  "Ġal": 452,
  "ĠumoÅ¼": 141253,
  "ha": 4223,
  "_trial": 63486,
  "æĤ°": 122894,
  "Ð²Ðµ": 126353,
  "ĠMinority": 70058,
  "/y": 26491,
  "_setopt": 23533,
  "<|box_end|>": 151649,
  "Ġmaize": 92207,
  "Ġoltre": 91102,
  "ĠØ¥ÙĦÙĬ": 126000,
  "ĠCabin": 24764,
  "å»ºè®¾åĴĮ": 108046,
  "unique": 9587,
  "Ġ×©×Ĺ": 129929,
  "Cons": 15220,
  "(Input": 29773,
  "Ġsubroutine": 88334,
  "ãģ¦ãģĦãģįãģŁãģĦ": 140988,
  "åİĸ": 122442,
  "_FILENO": 75538,
  "ideas": 93684,
  "Ġsupra": 66555,
  "Ð¸ÑĢÐ¾Ð²Ð°ÑĤÑĮ": 129432,
  ".sections": 72172,
  "Ġprivacy": 12345,
  "èµŀåı¹": 117103,
  "ä¸ŃæľŁ": 107886,
  "cp": 4672,
  "Ġmilitary": 6277,
  "ĠgridSize": 97511,
  ".ide": 75037,
  "Ġsubmerged": 84077,
  "GUILayout": 36811,
  "-expand": 49093,
  "ountains": 92306,
  "pi": 2493,
  "_HTTP": 34954,
  "ĉnext": 28144,
  "Ġindicates": 14807,
  "çĶ¸": 103604,
  "ĠØ§ÙĦÙĤØ·": 134848,
  "Ġlimit": 3930,
  "ĠÐ²ÑģÑı": 142478,
  "Ġfriendship": 26509,
  "ê¶Į": 128739,
  "éĹ®è´£": 110258,
  "ĉLCD": 89284,
  "Ġlistings": 25465,
  "æ¸ħç®Ĺ": 111227,
  "ä»»æĦı": 108112,
  "ðŁį©": 146865,
  "Ġ(!$": 11378,
  "ĠMesa": 54865,
  "à¸¿": 144098,
  "Ġinflux": 52852,
  "à¸Ĳà¸²à¸Ļ": 124971,
  "(item": 5393,
  "_AM": 25022,
  "Ġhex": 12371,
  "ãģ»ãģĨ": 131495,
  "Ġtextile": 65538,
  "Ġeius": 68421,
  "Ġcreations": 52762,
  "(hw": 73751,
  "âĶĵ": 146064,
  "cloud": 12361,
  "ĠÑĤÐµÐ±": 128071,
  "Ġfoil": 46399,
  "Ġmlx": 75411,
  "_lift": 87004,
  "Ġvieille": 69211,
  "Backend": 29699,
  "){Ċ": 1264,
  "à¹Ģà¸ķà¸£": 130904,
  "transform": 4701,
  "_chg": 96276,
  "();}Ċ": 61355,
  "åĴº": 122460,
  "ĠTory": 46150,
  "Ġ×¤×ķ×¡": 142321,
  "ĠComposition": 67106,
  "éŀħ": 121368,
  "ìĺı": 151006,
  "åĲĲæ§½": 108761,
  "ĉalpha": 73063,
  "ð«ĵ": 101029,
  "ĉExt": 76605,
  "è£ħéħįå¼ı": 116344,
  "Ġcolumnist": 53087,
  "ÜĲ": 145753,
  "ĠWilmington": 84505,
  "ĠThor": 28450,
  "utely": 97366,
  "Ġmel": 10581,
  "ĠSwing": 52086,
  "ĠHBO": 42878,
  "okens": 9713,
  "ÙħØ¹Ø¯Ø§Øª": 138570,
  "Wiki": 53896,
  "Ġsignalling": 90877,
  "NSBundle": 57288,
  "Ġinduced": 35472,
  "Ġpunto": 41514,
  "ĠTransmission": 47025,
  ".ecore": 62886,
  "èļ¬": 120378,
  "(itemId": 99076,
  "/cpu": 77317,
  "æ¡ĵ": 114589,
  "éĽ»": 99866,
  "cljs": 32934,
  "Ġ(*": 4609,
  "Ġ\\<^": 76889,
  "Segue": 30992,
  "Ġliegt": 63940,
  "Administrator": 62376,
  "æŃ£å®Ĺ": 115146,
  "å¦ĩ": 99981,
  "Ġvortex": 86527,
  "Ð¾Ð¿": 28156,
  "ĠASN": 54855,
  ".float": 15925,
  "Ġzaj": 81347,
  "Ġawkward": 28759,
  "_similarity": 76236,
  "Ġfederal": 6775,
  "ĠEntertainment": 22518,
  "(TypeError": 86967,
  "Ġcollaboration": 20031,
  "ĠminValue": 63292,
  "dispose": 83865,
  "ĠÃ§aÄŁrÄ±": 142851,
  ".progressBar": 72093,
  "åŁª": 122760,
  "++;Ċ": 3507,
  "MING": 96420,
  "Ġmeals": 20969,
  "åĽĽä¸ªæĸ¹éĿ¢": 118241,
  "Ġwifi": 33417,
  "äºĶå¹´": 104540,
  "áĢŁ": 149386,
  "VERS": 72226,
  "Ġlanguages": 15459,
  "ÙĨØ´": 124983,
  "Ġmotorists": 71898,
  "çıĻ": 120284,
  ".fx": 83219,
  "Ġclimbs": 76411,
  "_USAGE": 57290,
  "ĠoffsetX": 73272,
  "ĠHeroes": 36999,
  "ä¸ĵåľº": 112653,
  "Ġbloc": 40740,
  "zn": 20308,
  "imals": 24163,
  "Ø£ÙģÙĦØ§Ùħ": 142347,
  "ĠScr": 32134,
  "Ġleo": 88501,
  "\\Common": 40592,
  "×Ķ×ª×Ĳ×ŀ×Ķ": 142415,
  "_OPT": 28264,
  "_visible": 34371,
  "Ġdemande": 61063,
  "Segments": 64813,
  "_RUNTIME": 52198,
  "ãĤīãĤĮãģ¦ãģĦãĤĭ": 133385,
  "Styled": 34180,
  "ĠVital": 54271,
  "flo": 89806,
  "Ä±ntÄ±": 128006,
  "å¤§éħĴåºĹ": 113300,
  "Ġwaterfall": 69051,
  "å®£ä¼łçīĩ": 118926,
  "éĹŃçİ¯": 115309,
  "count": 1830,
  "Ġ×¨×©×Ĳ×Ļ": 143101,
  "igious": 22153,
  "ĠPhysics": 27315,
  ".ly": 27250,
  "ĠĠĠĠĠĠĠĠĠĠĠĊ": 19011,
  "Ġdonner": 70651,
  "HUD": 30237,
  "çķĮ": 97120,
  "ĠSuppliers": 46989,
  "trap": 55914,
  "ĠMountains": 40014,
  "æĦŁæŁĵ": 101304,
  "ĠJune": 5534,
  "Ġtransaction": 7745,
  "ä¹Łèĥ½": 104425,
  "Ġprocedure": 10324,
  "à¸Ńà¸Ļà¸²à¸Ħ": 137003,
  "Ġencoded": 20498,
  "ĠIsis": 53967,
  "orelease": 45214,
  "çľģéĴ±": 112119,
  "Ġparticipated": 30308,
  "Ġpiles": 58772,
  "coll": 17222,
  "ody": 1076,
  "XHR": 52036,
  "ica": 3001,
  "×Ķ×ª×Ļ": 137305,
  "ÙĪØ¶": 124283,
  ".aut": 31055,
  "Ð°Ð»ÑĮÐ½ÑĭÐµ": 131299,
  "ĉZ": 35853,
  "DidLoad": 13110,
  "çº»": 122272,
  "Ġrounding": 51562,
  "à®¿à®": 99012,
  "ÙħÙĬØ¹": 126398,
  "Ġiz": 22137,
  "ĠDISPLAY": 52264,
  "Ġpriesthood": 85616,
  "è¦ģå®³": 117676,
  "çĤİçĹĩ": 110819,
  ".span": 52869,
  "ĠSports": 13180,
  "Ġ@}": 93998,
  "Ġpackets": 27035,
  ".getUrl": 67869,
  "åĽłåľ°": 113428,
  "Ġmue": 40439,
  "Ġenslaved": 94289,
  "×¡×ķ×¤": 127628,
  "Ð¼Ð¸ÑĢ": 130178,
  "Ġdispatch": 6845,
  "_wind": 87438,
  "äººäºĭ": 105692,
  "ĠgÅĤ": 65689,
  "FieldValue": 52112,
  "Ġjew": 16868,
  "çİ°éĩĳ": 102305,
  "×ĵ×£": 129404,
  "ĠtoÃ¡n": 130051,
  "æ¦Ĩ": 103649,
  "åĮ»çĸĹåį«çĶŁ": 112144,
  "banner": 27128,
  "Ġengagements": 78871,
  "à¨°": 150418,
  "_putchar": 57969,
  "Ġexpires": 27902,
  "Ġath": 11742,
  "ĠPassword": 12362,
  "è¾¾": 93488,
  "ìī¼": 144937,
  "Ġlul": 68063,
  "ĠPreis": 60939,
  "Ġwybra": 141362,
  "firm": 8802,
  "è¹Ń": 110945,
  "è¿°": 41932,
  "ĠGirl": 11363,
  "')).": 18913,
  "Ġexpressed": 13302,
  "girls": 60196,
  "irement": 46568,
  "Ġ\"/\"Ċ": 80455,
  "Reply": 20841,
  "overe": 68930,
  "ÎŁ": 145079,
  "Ø§Ø®ØªÙĦØ§Ùģ": 141387,
  "_gene": 59602,
  ".postValue": 97349,
  "itted": 3762,
  "Ġneuken": 31283,
  "âĻªĊĊ": 65225,
  "åĬ¨çĶŁæĪĲ": 78808,
  "ROY": 51465,
  ".ToBoolean": 89784,
  ".linspace": 38712,
  "à¹Ģà¸«à¸ķà¸¸": 125292,
  "à¸¡à¸¹à¸¥": 140402,
  "Ġprogn": 62803,
  "Ø³Ø¹Ø±": 130250,
  "Ġoutset": 67764,
  "ĉdf": 85187,
  "éĶª": 123197,
  "ĠÑģÐ¾Ð³Ð»Ð°Ñģ": 132802,
  "ĠProphet": 36628,
  "ĠIndones": 20263,
  "ĠPunch": 53175,
  "Ġê°Ģì§Ģê³ł": 131670,
  "-MM": 18506,
  "_WEEK": 76999,
  "Hints": 74933,
  "ĠViolence": 46632,
  "ãģ§ãģĹãĤĩãģĨ": 125045,
  "éĽĨåĽ¢èĤ¡ä»½": 113761,
  "ranges": 66562,
  "Ha": 32942,
  "Ġpopul": 31749,
  "Ġcreek": 64405,
  "ĠIF": 11551,
  "micro": 40443,
  "éĴī": 107866,
  "á¨ķ": 150063,
  "rowsable": 51111,
  "_ca": 49604,
  "Boss": 56975,
  "ĠpictureBox": 38009,
  "ĠêµŃë¯¼": 135138,
  "stitial": 48170,
  "å¤´ä¸Ĭ": 107798,
  "ĠOnPropertyChanged": 49281,
  ".badlogic": 42535,
  "Editable": 30318,
  "itational": 49824,
  ".In": 5337,
  "-story": 45099,
  "ĠMo": 6050,
  "ĠâĢŀ": 14835,
  "(receiver": 78126,
  "åįĹéĥ¨": 106835,
  "ĠImag": 76433,
  "Ġcardboard": 53943,
  "Ġtremendous": 26942,
  "à¹ģà¸¥": 124103,
  "ðĿĲĺ": 151303,
  "asured": 39312,
  "asad": 76611,
  "äĲĥ": 123058,
  "Ġdeeply": 17247,
  "Ġdiscoveries": 52998,
  "Ġunseen": 63133,
  "Ġneedles": 56167,
  "_KEYBOARD": 81164,
  "Ġelimination": 42932,
  "ï¿¤": 147958,
  "_ANAL": 59753,
  "â½Ĳ": 150218,
  "ĠÑĥÑģÐ¿ÐµÑħ": 141656,
  "\")));čĊ": 58337,
  "ãģ¨è¨ĢãĤıãĤĮ": 130954,
  ".tx": 33807,
  "Ġcounsel": 16080,
  "_owner": 29027,
  ".Utilities": 46443,
  "lÃł": 132368,
  "Æ³": 148217,
  "çŃ·åŃĲ": 115107,
  "à¸Ļà¸µ": 132398,
  "WithEmail": 77231,
  "ĠFruit": 43087,
  "ĠShops": 74544,
  "dÄ±r": 125020,
  "FLASH": 75700,
  "×ŀ×Ļ×ł×Ļ": 132144,
  "ĠpropriÃ©tÃ©": 142779,
  ".order": 14041,
  "è¨Ńè¨Ī": 106528,
  "Ø·ÙĦØ¹": 133548,
  "à¸Ĭà¸²à¸¢": 126715,
  "ĠFunding": 63715,
  "Ð³Ð°Ð½": 132150,
  "×ĸ×Ľ×Ļ×¨": 135281,
  "Ø£ÙĦØ¹": 138687,
  "Ġcharitable": 47701,
  "Ġpdata": 70311,
  "Ġcomparable": 29039,
  "é£İè²Į": 110990,
  "ĠVest": 55888,
  "_song": 57102,
  "ĠPipe": 27805,
  "å¼·": 102391,
  "Progress": 9496,
  "ĠCurrently": 24150,
  "ĉcamera": 71828,
  "Percentage": 36167,
  "éĩĳéĻµ": 117998,
  ")),": 5731,
  "å¯¹çħ§æ£ĢæŁ¥": 113648,
  "ĠArbor": 64539,
  "Ġkenn": 74261,
  "æ¡£": 100104,
  "Ġterminated": 31272,
  "_Bar": 91069,
  "Ġlistening": 14289,
  "Ġdistinctive": 34847,
  "zan": 49126,
  "Ġstripslashes": 63223,
  "æı¶": 120557,
  "-radius": 17710,
  "ðŁĴ©": 147121,
  "ĠDagger": 82183,
  "âĪľ": 150646,
  "ĠÐ²Ð¾Ð¹": 141967,
  "åĨ²åĩ»": 104762,
  "Ġrx": 19111,
  "ĠØ§ÙĦÙħØ¨Ø§Ø´Ø±": 143371,
  "Ġseparated": 18663,
  "ĠUITableView": 13797,
  "ä¾Ľå¤§å®¶": 118550,
  "etical": 44508,
  "å±±è¥¿çľģ": 110072,
  "Ġinfamous": 38533,
  "å¿įä¸įä½ı": 106118,
  "Ġchapters": 29632,
  "Ġ);": 6903,
  "ISED": 26458,
  "Ġakka": 51342,
  "Ġandroid": 2103,
  "ĠThese": 4220,
  "eer": 34756,
  "æĥ³å¿µ": 116367,
  "dÃŃa": 135505,
  "ĠDatensch": 91741,
  "Ġmillenn": 40599,
  "_intersect": 72747,
  "ä½ķåĨµ": 103620,
  "Ġendurance": 48186,
  "åĩłåı¥": 111350,
  "muÅŁtur": 128085,
  ".Arrays": 28437,
  "ðŁĨķ": 147265,
  "Ġredux": 67616,
  "_modified": 37749,
  "Ġdestruction": 19258,
  "ĠHan": 20644,
  "Ġnegatively": 47191,
  "Ġirgend": 87262,
  "ĠMutual": 74042,
  ".sup": 38677,
  "Ġgrandi": 89774,
  "ë§»": 150934,
  "éĥ½éĿŀå¸¸": 107986,
  "Ġfret": 53064,
  "à¸§à¸ģ": 124936,
  "ĠĠĠĠĠĠĠĠĠĠĠĠĠĠĠĠĠĠĠĠĠĠ": 5180,
  "ovable": 31955,
  "alÄ±k": 127781,
  "Ġcleaned": 27722,
  "Ġkino": 89255,
  "ĠBranch": 25119,
  ".temperature": 74366,
  "eyes": 57231,
  "Ġecstatic": 97292,
  "åĩºçĶŁäºİ": 112625,
  "åĩĨæĹ¶": 114572,
  "ĠClock": 26142,
  "çľģä»½": 107997,
  "å¹´è½»äºº": 102411,
  "ĉBOOST": 72550,
  "æĸ¹åı¯": 110254,
  "ç¦¤": 123502,
  "éķĸ": 117315,
  "-original": 66958,
  "/mat": 84600,
  "ĠOttawa": 32166,
  "ĠAlexand": 37477,
  "oracle": 69631,
  "èŀŁ": 121766,
  ")'),Ċ": 96279,
  "Ġrecurse": 73299,
  "Ø«ÙĤ": 126962,
  "æ¹ĸæ³Ĭ": 114394,
  "é¹©": 121869,
  "Ġobserv": 9282,
  "ĠÃ¶nÃ¼ne": 143018,
  ".executeUpdate": 38912,
  "\"=>\"": 20634,
  "Batman": 88725,
  "ĠShack": 85423,
  "ìĿ»": 150311,
  "ĠClear": 12023,
  "<|audio_pad|>": 151675,
  "Ġextension": 8894,
  ".le": 30502,
  "ĠØ§ÙĦÙģØ±ÙĬÙĤ": 133531,
  "å««": 121329,
  "Ġdiffered": 87975,
  "åħ»æ®ĸæĪ·": 118708,
  "Ġcomeback": 46537,
  "æĹłç©·": 109995,
  "_progress": 27200,
  "à¸¥à¸¸": 126169,
  "Ġcouncillor": 90361,
  "ĠFarmers": 62322,
  "ĠFowler": 74143,
  "(balance": 90621,
  "ç¼ī": 115097,
  "Ġcharged": 11430,
  "_US": 13467,
  "ncoder": 66943,
  "Ġtokenizer": 45958,
  "']))": 8401,
  "éĴĪå¯¹æĢ§": 103332,
  "oooooooo": 60293,
  ".dat": 9915,
  "æı©": 119424,
  "ç¾½æ¯Ľ": 116139,
  "Por": 28097,
  "(STD": 62274,
  "FIELD": 28747,
  "åķĨçĶ¨": 111966,
  "_quality": 55074,
  "âĹĥ": 150696,
  "é»©": 122063,
  "æİĴæĶ¾": 105054,
  "Ġrealities": 49346,
  "èªª": 100379,
  "à¹Ħà¸¡à¹Īà¹Ģà¸Ħà¸¢": 135472,
  "?:": 4820,
  "Ġunto": 29349,
  "*ĊĊ": 21518,
  "Ġhomeless": 22994,
  "RATE": 60696,
  "å·¥å§Ķ": 103599,
  ".decoder": 74047,
  "åķĨè´¸": 106264,
  "á»²": 144780,
  "ãģĬéĩĳãĤĴ": 137553,
  "ĠmÃ¼cadele": 133119,
  "andelier": 78121,
  "Ġsomew": 9002,
  "uzzy": 34758,
  "Ġcontainment": 45211,
  "à¸ģà¸¥à¹Īà¸²à¸§": 125853,
  "Escort": 68278,
  "Ġwardrobe": 45746,
  "Ã¤cht": 135573,
  "ĠdurÃ©e": 141007,
  "Ġ×Ķ×ŀ×ª": 129113,
  "ãħľ": 144579,
  "Ã¶ff": 51176,
  "ĠPetit": 91817,
  "ĉĉĉĉĉĊ": 12573,
  "ĠAccessed": 97300,
  "Kyle": 91180,
  "ĠLoan": 35081,
  "ĉnull": 60274,
  "Started": 32527,
  "ĠÐ½Ð°ÑģÑĤÐ¾ÑıÑī": 127755,
  "_Vert": 80810,
  "_logo": 29962,
  "ĠerrorMessage": 24943,
  "(order": 19385,
  "Cap": 12903,
  "Ġcurve": 15655,
  "êº¾": 145057,
  "åĿĬ": 100896,
  "ãģĦãģ§": 132976,
  ";l": 81628,
  "æŀģåħ¶": 106471,
  ".Insert": 23142,
  "jection": 7606,
  "nock": 87121,
  "è¿ģ": 100287,
  "à¸ļà¸²à¸£à¹Į": 139433,
  "ĠÐ´ÐµÐ¹ÑģÑĤÐ²": 126114,
  "PARAM": 20198,
  "ĉĠĠĠĠĠĠĠ": 7472,
  "éħĬ": 120074,
  "ØªÙĩÙħ": 129080,
  "Good": 15216,
  "Ġrequer": 66687,
  "Ġseparat": 61382,
  "è¿Ľé¡¹": 117743,
  "åįĹæµ·": 102903,
  "åĽ¾æłĩ": 117556,
  "ĠSwift": 23670,
  "_hand": 23194,
  "-launch": 85306,
  "Ġ×Ķ×Ĳ×Ĺ×¨": 125372,
  "ç²ĳ": 120487,
  "ĠKot": 61663,
  "ï®«": 146811,
  "ĠBEGIN": 22203,
  "ĠExcellence": 57140,
  "CompanyName": 62539,
  "rial": 6619,
  "Ø±": 11071,
  "Ġincons": 28664,
  "WordPress": 92202,
  "ĠÑĤÑĥ": 141634,
  "æīģ": 109770,
  "å¼ºè¿«": 111057,
  "ĠTina": 63687,
  "Ġtesting": 7497,
  "dma": 44981,
  "Ø«Ø§ÙĨ": 135895,
  "Ġ×¦×Ļ×ĳ×ķ×¨": 134847,
  "åĩŃè¯ģ": 110655,
  "æĭ¶": 122415,
  "raphic": 78073,
  "Ġsubmar": 42171,
  "ĠPriority": 31920,
  "Ġboosted": 64108,
  ".OrderByDescending": 91300,
  "ĠMotor": 17614,
  "radouro": 54640,
  "\"]ĊĊ": 25912,
  "Ġfloors": 25945,
  "åħ³äºİ": 101888,
  "_OPERATOR": 69678,
  "á»Ľt": 132540,
  ":\");čĊ": 67618,
  "è§Ł": 123233,
  "åĪĿä¸ī": 116983,
  "å¸®åĬ©ä¼ģä¸ļ": 112570,
  "Ġestimation": 41204,
  "åĩºæĿ¥ãĤĭ": 132909,
  "å¹³åı°ä¸Ĭ": 108699,
  "})ĊĊĊ": 43060,
  "ÙħÙĨØ¸ÙħØ§Øª": 140079,
  "oton": 25849,
  "ocom": 11986,
  "ëĵķ": 148261,
  "ĠÃ¶r": 136235,
  "¤æĸŃ": 79326,
  "Ġinvariant": 57620,
  ".WHITE": 42382,
  "verts": 28163,
  "à¸Ķà¸µà¹Ĩ": 138285,
  "Ġvais": 90407,
  "($\"": 17705,
  "Ġ×Ļ×©×ł×Ŀ": 140508,
  ".song": 70421,
  "-conf": 50717,
  "Ġwithdrawn": 49582,
  "Ġpense": 72853,
  "/win": 97718,
  "à¸ŀà¸·": 124918,
  "Ð·Ð°Ð»": 138528,
  "ĠEgg": 41213,
  ".False": 50757,
  "oste": 84123,
  "Starting": 24617,
  "avigation": 4372,
  "ĠComputers": 68449,
  "Ġdefault": 1638,
  "ãĥĩãĤ¶ãĤ¤ãĥ³": 132131,
  "ĠsetPage": 82828,
  "ĠHiro": 56292,
  "ĠIDictionary": 59331,
  "Ġhers": 10837,
  "ĠNational": 5055,
  "Ġhva": 82766,
  "å¼ķå¯¼": 104042,
  "extField": 25082,
  "neck": 62340,
  "ĠCLIENT": 40297,
  "èĥ½æī¾åĪ°": 114562,
  "ĠÙĪØ§ÙĦØªÙĬ": 129833,
  "äººäºº": 106171,
  "Ġpartnerships": 39605,
  "LogFile": 98857,
  "cors": 53972,
  "ç§ĳæĬĢåĪĽæĸ°": 105355,
  "ĠMyanmar": 52355,
  "Ġuncertainty": 26826,
  "ĠĠĠĠĠĠĠĠĊĊ": 23459,
  "Ġpropiedad": 87623,
  "ĠDivide": 62902,
  "ĠBalk": 59869,
  "packet": 24829,
  "è®¹": 119308,
  "åĥı": 65101,
  "æ¯Ķå¦Ĥè¯´": 106998,
  "ÙħØ±ÙĬ": 140354,
  "×Ļ×ł×Ĵ": 131154,
  "ķĮ": 47378,
  "ãĤĴä¸Ńå¿ĥãģ«": 143664,
  "à¸Ħà¸§à¸£": 126507,
  "ĠÑģÐ²Ð¾Ñİ": 131398,
  "Ġancest": 25918,
  "âĴ¸": 145677,
  "ĠhoÃ¡": 137692,
  "å¿ĸ": 119641,
  "lek": 75776,
  "ĠAmmo": 79481,
  "Ø¯ÙĨ": 125837,
  "Ġpear": 37690,
  "Ġseem": 2803,
  "'Ãł": 80891,
  "æıĲåīį": 104154,
  "Ġchloride": 81782,
  "ĠDom": 20751,
  "_kses": 96796,
  ".collectionView": 65708,
  "Bachelor": 86731,
  "[dir": 93479,
  "Ġstarting": 5916,
  ".onActivityResult": 92488,
  "×ŀ×¡×ľ": 133923,
  "ç»¿èĮ¶": 117355,
  "ï®©": 149131,
  "çĩĭ": 123575,
  "ĠÐºÐ½Ð¸Ð³Ð¸": 139984,
  "çµĤ": 101786,
  "Ġrealidad": 80504,
  "Ġunidad": 96722,
  "âĮĢ": 146875,
  "á½ĳ": 146310,
  "packing": 95124,
  "Ġwp": 12609,
  "ILLISE": 58600,
  "rollback": 33559,
  "æī§è¡Į": 75117,
  "Ġimpeccable": 88546,
  "Ġceramics": 95706,
  "æķĻå®¤": 106323,
  "_drawer": 94507,
  "ĠitemList": 72274,
  "è¿Ļä¸ªåľ°åĽ¾": 106439,
  "åıĳçİ°": 99879,
  "ĠinputValue": 79908,
  "íĤµ": 144926,
  "èĺĺ": 123735,
  "(weights": 62601,
  "Ã·": 144422,
  "ĠReact": 3592,
  "Ġ×Ĳ×ķ×ª×Ŀ": 129394,
  "INA": 31904,
  "æ³½è¿ŀæĸ¯åŁº": 117545,
  "ĠWildlife": 41549,
  "å¨ĥå¨ĥ": 109892,
  "Ġconfigur": 46971,
  "ĠgameTime": 93254,
  "çĨ¨": 121689,
  "æ¯į": 99740,
  "å¼ºåº¦": 102660,
  "lod": 82482,
  "Ġenrolled": 36091,
  "ĠrichTextBox": 97429,
  "Ġevolution": 15379,
  "bookmark": 60375,
  "(cond": 66285,
  "ãģ§ãģ¯ãģĤãĤĬãģ¾ãģĽãĤĵ": 132304,
  "ĠExercise": 32818,
  "ĠWolves": 63479,
  "Ġsplitting": 44373,
  "sword": 79038,
  "ĠBK": 76782,
  "obic": 30806,
  "åĳ¼ãģ³": 142622,
  "getCurrent": 44454,
  "Ġobstruction": 59951,
  "ĠSisters": 60988,
  "ï¯±": 149849,
  "åıī": 102940,
  "ĠLect": 40943,
  "-sample": 83879,
  "Ġwhatever": 8820,
  "ĠWave": 31318,
  "arend": 52845,
  "Ġradios": 70069,
  "Ġplaisir": 79310,
  "çıį": 100861,
  "Ġmedal": 36612,
  ".goto": 58880,
  "ĠKod": 67302,
  "Õĸ": 149508,
  "ĠLiv": 36211,
  "â½ħ": 147160,
  "åĽ½æĥħ": 114371,
  "_Client": 46102,
  ".record": 32024,
  "Ġgiveaway": 59964,
  "èĴĤ": 104680,
  "_preference": 92718,
  "arnation": 54049,
  "_METADATA": 58084,
  "çł´äº§": 107164,
  "FromDate": 74722,
  "åī¿": 113626,
  "ritch": 91589,
  "âĢĻt": 1405,
  "å¤´çĸ¼": 112685,
  "--------------------------------": 1408,
  "_codigo": 74532,
  "Ġwich": 70367,
  "-town": 82903,
  "ubby": 54854,
  "×Ĵ×Ŀ": 125643,
  "ç«¹": 102045,
  "çĻ»è®°": 104141,
  "æµ¦": 101465,
  "Ġbracket": 31642,
  "czÄħ": 126580,
  "Ġhumiliation": 71718,
  "ĠAnonymous": 30437,
  ".Generation": 66516,
  "ĠĠĠĠĠĠĠĠĠĠĠĠĠĠĠĠĠĠĠĠĠĠĠĠĠĠĠĠĠĠĠĠĠĠĠĠĠĠĠĠĠĠĠĠĠĠĠĠĠĠĠĠĠĠĠĠĠĠĠĠĠĠĠĠ": 5238,
  "ãıĺ": 148869,
  "ĠÑģÐ°Ñħ": 143708,
  "-Ray": 78404,
  "trade": 36071,
  "-TV": 52292,
  "ĉS": 7568,
  "å±¿": 103766,
  "Ġanticip": 16552,
  "Ġprecisely": 23638,
  "æ»¡": 99333,
  "ĠMalone": 83071,
  "\",{": 74448,
  "Ġrequiring": 22703,
  "Pressure": 68269,
  "ìĭľ": 29326,
  "ĠPlatinum": 43992,
  "Ġauthorization": 23715,
  "iations": 17144,
  "ê¸Ķ": 147214,
  "ĠCrusher": 16200,
  "á»ĳc": 124504,
  "çĭĹçĭĹ": 109032,
  "Ð²ÐµÐ»Ð¸": 127626,
  "aryawan": 75627,
  "ĠEnlightenment": 91831,
  "ĠgÃ¼neÅŁ": 142398,
  "_mono": 60080,
  "èĩªåĪ¶": 113189,
  "ç§ĺ": 99780,
  "_MORE": 75131,
  "æ¹Ħ": 119218,
  "ä¸įå½ĵ": 108486,
  "åıĺåİĭåĻ¨": 113103,
  "çĶŁæľº": 108582,
  "ëªĥ": 149088,
  ".junit": 8332,
  "ãĥĳãĥĳæ´»": 143216,
  "Ġoutgoing": 36698,
  "ĠGauss": 93216,
  "ionate": 84899,
  "ĠApollo": 35150,
  "å¯Į": 99415,
  "_IDS": 74942,
  "ãģĿãģĨ": 124639,
  ".line": 10932,
  "ĠÅŀe": 129964,
  "Ġconsole": 2339,
  "r": 81,
  "åĨĹ": 119256,
  "_M": 1245,
  "ĠESV": 83011,
  "Ġthroat": 27591,
  "_UNICODE": 75688,
  "ĠsÃ©rie": 46428,
  "langle": 70800,
  "isk": 3187,
  "$json": 63313,
  "çµĤãĤıãģ£ãģŁ": 143912,
  ".Documents": 54983,
  "ÈĤ": 148501,
  "RB": 29259,
  "ĉrender": 33921,
  "Ġalf": 84666,
  "ultiple": 12229,
  "ĠEnemies": 60481,
  "izable": 8335,
  "ebile": 137343,
  "Body": 5444,
  ".'.": 35949,
  "ãĥ¼": 11710,
  "ĠCGRectGet": 62250,
  "çĶ¨é¤Ĳ": 111554,
  "æľīå¾ħ": 114066,
  "..'": 83143,
  "çĬ¯ç½ªå«Įçĸĳ": 108793,
  "âĩŁ": 149636,
  "ĶåĽŀ": 25011,
  ".Cluster": 72883,
  "aravel": 61653,
  "_CLASSES": 69164,
  "Objects": 11543,
  "çķĪ": 120118,
  "ïºĴ": 144332,
  "ĠmÃ¼mk": 132815,
  "ĠShare": 11775,
  "ĠRajasthan": 86340,
  "Ġautobiography": 90437,
  "è¾°": 101427,
  "Ġprayed": 66697,
  "emachine": 98469,
  "[]>Ċ": 91827,
  "ÑıÑĤÐ¸": 128088,
  "Ġdeliber": 21150,
  "Ġhal": 14761,
  "GameData": 92761,
  "<>();čĊ": 50721,
  "è¶ĬæĿ¥": 100063,
  "ðŁ¤Ń": 145732,
  "íĩĢ": 149799,
  "×©×ĳ×¢": 133208,
  "ĠrealtÃł": 134523,
  "(selector": 46418,
  "elenium": 14784,
  "Ġláº·ng": 141431,
  "Ġboolean": 2710,
  "ĉĉĉĉĉĠ": 23263,
  "bcd": 91490,
  "Ġbapt": 42624,
  "Ġparl": 43214,
  "/url": 57254,
  "Ġaunt": 50066,
  "ÑĩÑĥÐ²": 133910,
  "ĠDil": 52767,
  "/name": 75992,
  "ĠĠĠĠĠĠĠĠĠĠĠĠĠĠĠĠĠĠĠĠĠĠĠĠĠĠĠĠĠĠĠĠĠĠĠĠĠĠĠĠĠĠĠĠĠĠĠĠĠĠĠĠĠĠĠĠĠĠĠĠĠĠĠĠĠĠĠĠĠĠĠĠĠĠĠĠĠĠĠĠĠĠĠĠĠĠĠĠĠĠĠ": 79871,
  "ÑĩÐ¸Ð½": 127228,
  "\"Some": 94875,
  "å®¹å¿į": 115261,
  "_Flag": 98135,
  "èĢĹ": 100293,
  "team": 9196,
  "weet": 4488,
  "Ġselections": 37399,
  "å´¶": 123014,
  "å¯ĵ": 101516,
  ".COLOR": 40075,
  "Ġsomewhat": 14400,
  "kening": 89273,
  ".visitVarInsn": 55165,
  "Social": 26317,
  "_after": 19844,
  "URE": 4521,
  "æĿ¥åİĨ": 118602,
  "ĠÑĩÐ°ÑīÐµ": 141648,
  "ëĲŃ": 148527,
  "tasks": 24760,
  "Ġsoftly": 56050,
  "Ġtheor": 45720,
  "Ġdurations": 89104,
  "ðĿĲ¿": 147391,
  ".argv": 14294,
  "Ġdoch": 40157,
  "ĠÐ°Ð½": 127704,
  "æŃī": 101698,
  "utilus": 90628,
  "urer": 7733,
  "è¯¢": 38265,
  "Ð¾Ð±ÑĭÑĤÐ¸": 96754,
  "iton": 62437,
  "Ġshin": 76011,
  "Ġstaging": 47762,
  "à¹Ĥà¸Ĺà¸©": 135622,
  "ĠLeg": 7610,
  "æ£į": 108261,
  "ĠbaÅŁ": 46555,
  "_jet": 93169,
  "Ġbrut": 19404,
  "ĠJuda": 57461,
  "Scalar": 20639,
  "Ġtempl": 67530,
  "_choose": 77433,
  "ðĿĶ±": 151323,
  "ssl": 24635,
  "è¦ģæ³¨æĦı": 105213,
  "elic": 42623,
  "AUTO": 67260,
  "(errors": 38881,
  "ÙĤØ§Ø¡": 127277,
  "éħįä»¶": 106306,
  "Ġrepr": 30636,
  "çĽ´è¾¾": 110868,
  "Ġarthritis": 54552,
  "ĠeuropÃ©": 94099,
  "ä½ĵç³»å»ºè®¾": 106810,
  "trl": 9599,
  "ITES": 48496,
  "ĠEventBus": 89567,
  "æ¶Īè´¹åįĩçº§": 116444,
  "ëĭ¼": 148634,
  "å¸¸è§ģ": 101536,
  "éº»éĨī": 115412,
  "æĻĵ": 100214,
  "ĠBoiler": 45665,
  "æł¹åŁº": 110381,
  "çĮ±": 121013,
  "èĬł": 122201,
  "ç¶ĵéģİ": 111862,
  "/comments": 48825,
  ".numero": 87956,
  "Ġà¸Ļà¸Ńà¸ģà¸Īà¸²à¸ģà¸Ļà¸µà¹ī": 134354,
  "Ġinactive": 31799,
  "arching": 82285,
  "Ġanders": 66653,
  "Ġfibre": 56425,
  "ining": 5740,
  "ïºĢ": 145280,
  "toggleClass": 48279,
  "YW": 98117,
  "(ByVal": 23530,
  "Ġ\");ĊĊ": 39887,
  "æī¾äºĨ": 111780,
  "ĠÑģÐ²Ð¾Ð¹": 130210,
  "éĸĵéģķãģĦ": 138031,
  "åĢĻéĢīäºº": 111016,
  "literal": 35785,
  "æī¹ç¤º": 115674,
  "ç»º": 120835,
  "ĠÃ³": 40867,
  "Moh": 82605,
  "ĠdaÄŁÄ±t": 141671,
  ")\",Ċ": 15752,
  "ocalyptic": 68648,
  "_OTHER": 56038,
  "Ġdispatched": 49151,
  ".sell": 96272,
  "===============Ċ": 57879,
  "letal": 45490,
  "çĽ¸éĹľ": 102537,
  "ellar": 26880,
  "ĉexpected": 42400,
  "Ġenim": 59502,
  "ĠBehaviorSubject": 61638,
  "w": 86,
  "?>": 4782,
  "ä¾¹": 122328,
  "æĪŃ": 123500,
  "emat": 42598,
  "iasco": 97283,
  "ĠOB": 43173,
  "çĨĬ": 101330,
  "×¦×¤×ķ×Ł": 134203,
  "ĠCEO": 12156,
  "åľ²": 122148,
  "éĿ¬": 122956,
  "ĉArrayList": 32258,
  "Ġ×ķ×ľ×Ľ×Ł": 131601,
  "ĠÑĤÐ°ÐºÐ¾Ð³Ð¾": 137566,
  "à¸ľà¸µ": 142271,
  "Ġante": 39424,
  "glfw": 90445,
  "Ġmoderately": 69251,
  "Ġincr": 66826,
  "ĠDepending": 39630,
  "×§×Ļ": 124784,
  "Ġtyranny": 76901,
  "Ġtherapy": 15069,
  "Ġinstal": 45598,
  "_history": 19802,
  "èĤĩäºĭ": 117704,
  "ä¸ĭæ¸¸": 106733,
  "ï¥ħ": 149809,
  ">User": 81766,
  "ĉflags": 59516,
  "Five": 37020,
  "ä¸Ģæľ¬ä¹¦": 115909,
  "Deal": 72841,
  "ĠDudley": 86902,
  "ĠÐºÐ¾Ð½ÐµÑĩÐ½Ð¾": 133859,
  "/org": 41361,
  "ani": 5559,
  "ĠSok": 84114,
  "_POINT": 27407,
  "Ticks": 43784,
  "BOT": 52871,
  "ĠWarranty": 56529,
  "ĠSENSOR": 67282,
  "ë¹ķ": 145882,
  ".removeAttribute": 78620,
  "Ġ×¢×ĵ×Ļ": 130713,
  "ĠPetersburg": 53948,
  "ãĤ¹ãĤ¯": 127202,
  "ãĤªãĤ¹ãĤ¹": 138317,
  "}/": 4472,
  "_WM": 75452,
  "éļĪ": 120814,
  "Current": 5405,
  "ickers": 39089,
  "ä¿¶": 120429,
  "apses": 78290,
  "Ġemiss": 98663,
  "inspection": 53395,
  "Ġprobs": 69370,
  "ðĴĢ": 151268,
  "æ°´åŁŁ": 114067,
  "åŁ¹è®ŃæľºæŀĦ": 110287,
  "Ġimproved": 12944,
  "drs": 93246,
  "Happy": 32847,
  "dÄ±": 126220,
  "Ë²": 148282,
  "åĮĸè§£": 106276,
  "Ġoccurrences": 56015,
  "ð¨Łł": 123741,
  "qrstuvwxyz": 64467,
  "ä¸ĢåĪĻ": 113915,
  "(cells": 90959,
  "_LEVEL": 17415,
  "ĠGiven": 16246,
  "ĠColbert": 78647,
  "sey": 8506,
  "######": 77129,
  "ĠÙĦÙĥÙĦ": 131863,
  "fig": 904,
  ".Queue": 50251,
  "á¥ĸ": 150566,
  "ĠLeben": 55397,
  "eligible": 68050,
  "ĠCeremony": 94652,
  ".rows": 19336,
  "ĠblockIdx": 84279,
  "ILogger": 82252,
  "ĠPendant": 80401,
  "åĴĮå¹³": 104939,
  "language": 11528,
  "Ġneeding": 32821,
  ".NONE": 42703,
  ".dispatchEvent": 62082,
  "findBy": 61236,
  ".subject": 33243,
  "-file": 14203,
  "ĠAgo": 96603,
  "ĠìĿ´ìļ©ìŀĲ": 139436,
  "Ø±Ø¨ÙĬ": 126907,
  "×¦×ľ×Ļ×Ĺ": 126117,
  "×¦×ķ×¨": 129848,
  "ĠoÃ¹": 38623,
  "(flags": 51113,
  "Ð°Ð½ÑĤ": 126602,
  "Ġanal": 3181,
  "à¸Ńà¸Ļà¸¸à¸įà¸²à¸ķ": 136812,
  "ï¼ķ": 43497,
  "_BLE": 44300,
  "ucing": 58044,
  "Ġcalves": 96210,
  "Ġvrou": 22451,
  "ÙħØµØ·ÙģÙī": 142369,
  "_ij": 70331,
  "safe": 18675,
  "Ġenlight": 40216,
  "dro": 11263,
  "âķħ": 150689,
  "âµĵ": 147043,
  "\\Event": 47029,
  "é¥ķ": 122097,
  "ë£ħ": 149437,
  "ybrid": 93390,
  ".Do": 33596,
  "ĠtoString": 14330,
  "(ret": 16057,
  "ĠHuman": 11097,
  "Ġsuggests": 13230,
  "ĠyayÄ±nlan": 140436,
  "ĉcpu": 80335,
  ".Circle": 82843,
  "[len": 24693,
  "Defines": 73816,
  "Ġsorting": 28273,
  "ĠCÃ²n": 135466,
  "(copy": 50713,
  "Ġembraces": 82387,
  "boot": 4619,
  "Ġestudio": 78936,
  "ç¢³éħ¸": 117178,
  ".DialogResult": 56434,
  "èĥ½è¾¾åĪ°": 114624,
  "Ġragaz": 32433,
  "Ġautos": 46872,
  "pike": 64446,
  "ĠProvision": 71573,
  "ĠzdjÄĻÄĩ": 143297,
  "Ġabuse": 11480,
  "ĠWHO": 39212,
  "uto": 1535,
  "ëŃ¥": 148643,
  "|r": 62640,
  "Ġfootprint": 42872,
  "æĸĩä¹¦": 111140,
  "pass": 6385,
  "ç½ķ": 103313,
  "Put": 19103,
  "ëĲı": 150898,
  "AIL": 5965,
  "ĠonPostExecute": 83163,
  "æĴ©": 112320,
  "Ġinsights": 25709,
  "Ġantivirus": 79549,
  "_MI": 59763,
  "åĿ¯": 112989,
  "=====Ċ": 64897,
  "rious": 83618,
  "_agents": 76347,
  "×ł×Ļ×Ļ×Ŀ": 129217,
  "âĢİ": 78238,
  "ä¸įæķ¢": 104447,
  "routes": 19794,
  "Ġunderwear": 54144,
  "ĠkÃ¶n": 41762,
  "ĠalÄ±ÅŁ": 141863,
  "hardware": 68215,
  "Ġ\"#{": 22486,
  "ê¹¥": 144709,
  "ĉclassName": 55142,
  "ĠBik": 75378,
  "SCORE": 81260,
  "ðŁĴĦ": 145537,
  "Ġmortgages": 60898,
  "Ġdiagnosis": 22982,
  "ë´ħ": 144049,
  "Example": 13314,
  "Minnesota": 92365,
  "ĠfontWithName": 97118,
  "ĠMASS": 92613,
  "overlap": 80061,
  ".Data": 3336,
  ".Broadcast": 84788,
  "å¼ĢèįĴæĹ¶æľŁ": 117288,
  "chapter": 40226,
  "åĨįä¹Łä¸į": 112870,
  "æŃ¡è¿İ": 114473,
  "Ġrecl": 47420,
  "è´¹çĶ¨": 103966,
  "_ne": 13925,
  ".endswith": 40115,
  "ĠtestCase": 54452,
  "plementary": 65982,
  "åħīè¾ī": 112434,
  "Ġblaze": 62473,
  "ì¸Ī": 151056,
  "ĠCo": 3539,
  "Thinking": 93945,
  "éĥ¨": 32948,
  "matchCondition": 23972,
  "Ring": 43466,
  "itter": 3248,
  "Ġsistema": 28828,
  "íľľ": 147425,
  "ĠcloseButton": 88314,
  "Ġitalic": 60763,
  "Ġtgt": 50475,
  "Dave": 55730,
  "ĠTurning": 71533,
  "<<<<": 35684,
  "romatic": 98766,
  "Ġbargaining": 54209,
  "Ġ[\"": 4383,
  "ĠyÃ¶nel": 134158,
  "Ġbombings": 73379,
  "ÐµÐ³": 24671,
  "Ġ×ŀ×Ĳ×ķ×ª": 136964,
  "_REFERENCE": 21121,
  "é¥¿": 103048,
  ">>(Ċ": 97238,
  "æĦļ": 103324,
  "Ġsetups": 83723,
  "æľĪé¥¼": 112199,
  "uilder": 2511,
  "SES": 27995,
  "ĠOkay": 35439,
  "ìĦ¶": 148644,
  "Ñİ": 11916,
  "ÐµÐºÑĤÐ¾ÑĢ": 127715,
  "pection": 16076,
  "ç¤¾ç¾¤": 110323,
  "avic": 88445,
  ".spring": 3816,
  "æ³¢": 99804,
  "æ°ĳä¼ģ": 118831,
  "ìŁĪ": 145643,
  "ĠBuilt": 33054,
  "Length": 4373,
  "è¿Ļæł·ä¸ĢæĿ¥": 115037,
  "Ġgal": 15369,
  "å®īç½®": 105529,
  "(\"\\\\": 29710,
  "Ġmolt": 90339,
  "delivery": 32390,
  "How": 4340,
  "ä¹¦åºĹ": 108777,
  "Ġopenssl": 80733,
  "ĠæĿ": 60596,
  "Ġconfirming": 48996,
  "nan": 18759,
  "ĠÑģÐ²Ð¾ÐµÐ³Ð¾": 133520,
  "ĠBitmap": 17533,
  "Someone": 54511,
  "<r": 91190,
  "Ġxy": 30784,
  "Ġmarijuana": 14593,
  "à¹Ģà¸Ľà¸¥à¸µà¹Īà¸¢à¸Ļ": 126741,
  "Ġcgi": 98832,
  "Ġcomplement": 22766,
  "Retrieve": 87665,
  "_self": 25637,
  "æ»¡èĦ¸": 112377,
  "Ġwhose": 6693,
  "ãĤĤãģĤãĤĬãģ¾ãģĻ": 130524,
  "Ä±ndan": 67133,
  "Ġ×Ķ×Ļ×©": 133740,
  "Ġadmission": 25293,
  "æ½½": 123494,
  "Ġfeast": 52168,
  "Ġneoliberal": 80468,
  "åĩłç§į": 108464,
  "ĠÑģÑĤÑĢÐ°": 138032,
  ".NET": 36515,
  "Ġballoons": 69480,
  "fram": 91504,
  "Ġlord": 36931,
  "Cri": 98892,
  "contra": 96743,
  "Ð½ÑĨÐµ": 138551,
  "ridden": 42185,
  "ãģ«ãģ¯": 125009,
  "ĠMU": 59786,
  "Ġsys": 5708,
  "StringUtil": 85529,
  "è¿Ľåįļä¼ļ": 116257,
  "ï½į": 138125,
  "IDDEN": 38289,
  "çĥŃæ°´": 103265,
  "Ġwzgl": 127904,
  "_JUMP": 88730,
  "potential": 91936,
  "Th": 1001,
  "âĢ¦)": 72839,
  "_requested": 72709,
  "Ġblazing": 85250,
  "ĠFML": 82927,
  "Ġnature": 6993,
  "Ġfolk": 27936,
  "Ġvinc": 81710,
  "â¼Ł": 148456,
  "Ġ×Ļ": 123872,
  "Ġenfants": 59304,
  "_BUCKET": 74444,
  "ImplOptions": 61573,
  "ÑĮ": 4824,
  "ØŃØ¬": 134209,
  "Ġ!!}": 76655,
  "áĨŀ": 145667,
  "(Fl": 76432,
  "CTOR": 26275,
  "JSONException": 54368,
  "Ġà¸ģà¸£à¸ģà¸İ": 143867,
  "zet": 60728,
  "ĠEnrollment": 87984,
  "èį·èĬ±": 115183,
  "jandro": 72059,
  "ĠJudge": 20207,
  "bour": 15385,
  "ÃŃas": 24325,
  "Ġmillones": 63024,
  "abbrev": 44272,
  "åľŁè±Ĩ": 109971,
  "<D": 29061,
  "-used": 68521,
  "},{\"": 36828,
  "ï¿¢": 145907,
  "ĠLetter": 26659,
  "Ġ`,Ċ": 63545,
  "ĠIde": 13804,
  "Ġkes": 50977,
  "ç¾¤ä¼Ĺ": 101060,
  "_IM": 8351,
  "Ġcyan": 57888,
  "Ø¹Ø§ÙĦÙħ": 129634,
  "lf": 11008,
  "_goal": 41264,
  "orns": 43029,
  "Ġrepeated": 11504,
  "à¸±à¸ª": 127889,
  "æĩĭ": 121864,
  "éĽ¶": 99822,
  "ÙĦØ§": 80970,
  "ãģĬãģĿ": 143992,
  "('../../": 21731,
  "Ġsecurely": 51023,
  "åĿĴ": 122214,
  "oken": 1679,
  "ĠSharma": 60015,
  "algo": 72464,
  "çŁŃæľŁ": 105299,
  "ä¸ªçĻ¾åĪĨçĤ¹": 106943,
  "HEET": 82476,
  "ç¸¾": 119215,
  "ĠgetType": 36581,
  "ĥ½": 22597,
  "ãĤĤãģ£ãģ¨": 130466,
  "drm": 98558,
  "ajÄħc": 95251,
  "Ġabsorption": 43125,
  "lations": 29656,
  "urrect": 58000,
  "datasets": 65546,
  "*m": 32569,
  "IV": 3090,
  "æĹ¥ãģ®": 130635,
  "azel": 68326,
  "_episode": 72224,
  "Ġmechanisms": 23783,
  "ouch": 3026,
  "Ġcreep": 27083,
  "ÙĤØ·Ø§Ø¹": 131449,
  "Ë": 135,
  "Ð¿Ð°Ñģ": 129606,
  "ä¸ª": 18947,
  "eÄŁ": 127129,
  "visor": 38012,
  "ä¸įçĶ±": 103498,
  "accom": 71987,
  "MASConstraintMaker": 58974,
  "leanup": 60639,
  "ĠÙģÙĬÙĩØ§": 128857,
  "çļĦç¼ĺ": 115726,
  "ycle": 5449,
  "à¸ķà¸²à¸¢": 132783,
  "YPRE": 87823,
  "arduino": 90201,
  "åĬ¡å·¥": 109508,
  "ĠÐŁÐµÑĢ": 135067,
  "åĤº": 123213,
  "ĠInnovative": 97569,
  "-three": 48393,
  "\".": 3263,
  "íķľëĭ¤ê³ł": 138669,
  "çĻ½éĵ¶": 109050,
  "Ġlil": 61371,
  "çļĦä¼ģä¸ļ": 104587,
  "ĠÐ¿Ð¾Ð¼Ð¾ÑīÑĮÑİ": 132409,
  "é¥Ń": 99938,
  "Ġarmored": 64645,
  ".visible": 26665,
  "Ġtire": 27287,
  "udging": 87312,
  "æĦıæĢĿæĺ¯": 111490,
  "ĠAlvarez": 76715,
  "AllWindows": 82270,
  "Ð½Ð¸ÑĨÑĭ": 134793,
  "_perc": 82812,
  "finite": 25722,
  "æ±Ń": 122246,
  "ĠAUTHORS": 26688,
  "æĢĿãĤı": 135254,
  ".timestamps": 39668,
  "Ø±Ø¨Ø·": 139068,
  "ICODE": 44769,
  "å°±å¾Ĺ": 110392,
  "Ġbols": 88216,
  "Ġdisb": 93444,
  "iners": 39699,
  "ç¥ģ": 110242,
  "Ġscattered": 36967,
  "æľĢåĲİä¸Ģ": 102920,
  "ĠwnÄĻtrz": 138977,
  "$pdf": 34210,
  "<unk": 128243,
  "icensing": 23411,
  "ĠCOL": 25578,
  "ï¦ħ": 149123,
  "Ġcharities": 50271,
  "Never": 26155,
  "ĠMilk": 43825,
  ".background": 11717,
  "Ġattentive": 72798,
  "ï½Ł": 150149,
  "ðŁıĹ": 149186,
  "ĠCARD": 41700,
  "×ĸ×Ļ×Ľ×¨×ķ×Ł": 142168,
  "ĠÙĬØ³Øª": 126850,
  "ãĤĢ": 125471,
  "unifu": 22241,
  "ĠKant": 62162,
  "ĠAlpine": 81713,
  ".Objects": 40314,
  "Ġtomato": 41020,
  "rito": 28041,
  "ĠSingleChildScrollView": 88554,
  "ĠLumpur": 86244,
  "'],'": 39009,
  "powers": 77304,
  "Ġirrigation": 62466,
  "ĠMySqlConnection": 81987,
  "ÑĥÐ»": 129335,
  "hero": 17732,
  "Ġyytype": 86396,
  "Mismatch": 82572,
  "á¼Ń": 150608,
  "ÃŃo": 41725,
  "ØªØ±Ø§": 131320,
  "-cr": 47589,
  ".response": 11362,
  "ä¸įçĶĺ": 117113,
  "clamation": 32984,
  "ComboBox": 20160,
  "ĠAW": 33338,
  "Ġturbulent": 82221,
  "Ġrival": 20762,
  "ĠInspired": 64825,
  "æ¯ķä¸ļåĲİ": 109981,
  "Ġdá»±": 126258,
  "Ġbunk": 45469,
  "ĠSynthetic": 74828,
  "Ġjuin": 84759,
  "pons": 2737,
  "Ġ×Ķ×Ļ×ľ×ĵ": 136011,
  "ãģĻãģĶãģĦ": 138094,
  "à¤µ": 145535,
  "Ġwildfire": 92125,
  "]['": 5352,
  "PJ": 94235,
  "åİ¦éĹ¨": 102434,
  "Ġbreaches": 68040,
  "ftp": 25068,
  "ĉREQUIRE": 87332,
  "-target": 18489,
  "Ġ*(": 12861,
  "Ġsubsidiary": 40064,
  "_DIP": 41524,
  "_pwd": 50957,
  "longrightarrow": 55042,
  "à¸´à¸Ķ": 124039,
  "åĲĮä¸Ģ": 102700,
  "ĠMED": 51599,
  "ĠChew": 89865,
  "den": 5183,
  "â®Ł": 147692,
  "éĿ¢ä¸Ĭ": 101653,
  "æĹłå£°": 110530,
  "çĶŁæĹ¥": 105511,
  "[t": 14193,
  "ĠPIPE": 71674,
  "å§Ĳå§Ĳ": 105341,
  "åĲĵå¾Ĺ": 114446,
  "ĉLP": 78972,
  "ÑģÐ»Ð¾Ð¶Ð½": 134691,
  "ä¸Ģåı£": 106380,
  "lasses": 33868,
  "Ġcompliance": 8733,
  "ĠinputData": 90162,
  "receive": 41893,
  "×ķ×¡×Ļ×£": 127985,
  "ìĿ·": 151012,
  "<O": 89476,
  ".Target": 35016,
  "Ġingen": 45392,
  "ç§ģãģ®": 129879,
  "ëļł": 150912,
  "ä¾¿äºİ": 108085,
  "Ġrequirements": 8502,
  "GENCY": 87674,
  "atives": 5859,
  "_vars": 11168,
  "ì¡°ìĤ¬": 135798,
  "Ġtts": 98540,
  "quarters": 19670,
  "åıįè½¬": 115679,
  "Ġsto": 42032,
  "æīĵäºĨ": 106677,
  "Ġ':": 13592,
  "LEC": 84130,
  "_Open": 51747,
  "ĠÐĿÐµ": 128544,
  "ÑĢÐµÐ³": 138882,
  "ãİľ": 145139,
  "Ġopens": 15885,
  ".'": 3159,
  "âı®": 148318,
  "ĠGenerate": 19813,
  "ØªØ±Øª": 140398,
  "à¸§à¸Ķ": 125210,
  "ĠPostal": 54217,
  "×ķ×¦×Ļ×Ŀ": 127191,
  "Ġstabbing": 70922,
  "ĠMoz": 51443,
  "Articles": 46135,
  "à¹ĥà¸Ļà¸Ĳà¸²à¸Ļà¸°": 143583,
  "Ġviolates": 50313,
  "æĪĲç«ĭäºĨ": 106137,
  ".scrollHeight": 90859,
  ".time": 6378,
  ".array": 7234,
  "å¾ĭå¸ĪäºĭåĬ¡": 110178,
  "ĠViolet": 73474,
  ":'',": 96403,
  "Ġmatt": 26439,
  "ĠVerb": 59214,
  "(j": 3325,
  "Ġdesks": 75815,
  "à¸ŀà¸µ": 133268,
  "_Struct": 72246,
  "Ð¾Ð²Ð¾Ð¹": 128939,
  "_put": 15557,
  "àºľ": 150233,
  "å²ģæľĪ": 105894,
  "èĢķåľ°": 109728,
  "ĠgetImage": 54561,
  "Ø´Ø§Ø´": 140043,
  "ì²ľ": 129034,
  "ategorical": 46047,
  "_average": 38594,
  "Ġstates": 5302,
  "Ġyarn": 38247,
  "ãĢ½": 147275,
  "ĠStandard": 11766,
  "Ġarbe": 80044,
  "è¦ģæ¯Ķ": 109286,
  "à¸Ħà¸£à¸Ńà¸ļ": 133162,
  "ĠAsk": 20437,
  "Ġoder": 12385,
  "Ġë¬¸ìŀĲ": 79921,
  "(ErrorMessage": 54980,
  "Ġ[ĊĊ": 51308,
  "åı¥è¯Ŀ": 100908,
  "æĪĲçĨŁ": 102226,
  "åĮĹéĥ¨": 106758,
  "à¶ļ": 147677,
  "Ġevaluations": 55081,
  "èĩªå¦Ĥ": 115287,
  "Ġinitialised": 87667,
  "nowledge": 51186,
  "Ġthwart": 63688,
  "ĠìķĬìĿĦ": 136982,
  "ï¿½s": 50963,
  "ultimate": 66566,
  "âĢľOh": 86890,
  "æµ·åħ³": 106907,
  "æ³Ħéľ²": 112125,
  "_does": 96374,
  "_InitStructure": 60099,
  "è§ĸ": 122865,
  "×Ĳ×ķ×Ł": 138358,
  "zÄħd": 76681,
  "Ġtranslating": 66271,
  "_plots": 87795,
  "ä¹Ŀå¹´": 113297,
  "ĠÐ´ÐµÐ»Ðµ": 137915,
  "èĮ½": 122421,
  "ĠØ§ÙĦÙĤØ¶ÙĬØ©": 142888,
  "Ġothers": 3800,
  "ĠProv": 58329,
  "Ġcombating": 95078,
  "ten": 1960,
  "Ġapps": 10500,
  "Ġ×ľ×ł×¡×ķ×ª": 142380,
  "æĤ¦": 101362,
  "Ġvalidity": 31839,
  "ç¬ĳç¬ĳ": 116423,
  "èĹĲ": 119510,
  "Ġfreund": 77634,
  "ĠSinger": 54670,
  "ooks": 14685,
  "_fg": 69473,
  "Numbers": 27237,
  ".operator": 51177,
  "ĠConvenience": 80648,
  "Ġpav": 39116,
  "æį§": 102894,
  ".setVerticalGroup": 55328,
  "ĠĠĠĠĠĠĠĠĠĠĠĠĠĠĠĠĠĠĠĠĠ": 2549,
  "(after": 93911,
  "ĠForex": 36862,
  "ĠWAN": 98802,
  "åĬ©éķ¿": 118304,
  "LECTION": 28017,
  "ĠĠĉĉ": 35329,
  "Ġmetadata": 11160,
  "_projection": 72738,
  "æĥ®": 120796,
  "ĠÐ¿ÑĢÐ¾Ð±": 126963,
  "(dim": 36902,
  "Ġportion": 13348,
  "_DSP": 94281,
  "Ġbehaviour": 16999,
  "Ġê°Ģìļ´ëį°": 142180,
  "ĠAdemÃ¡s": 87483,
  "nell": 48465,
  ".Seek": 76465,
  "ĠHerc": 77152,
  "(repository": 50305,
  "REEN": 13813,
  "ÙĪÙģÙĤ": 130449,
  "esses": 64870,
  "ä¸ŃåĽ½èģĶéĢļ": 118485,
  "ä¸´æ¸¯": 118426,
  "à¸¡à¸±à¹īà¸¢": 143404,
  "Ġfh": 36075,
  "ĠÄĳo": 125190,
  "rections": 67343,
  "ĠSomalia": 59751,
  "çĬģ": 117301,
  "ĠnhÃ¬n": 128780,
  "áīł": 149559,
  "IRONMENT": 59839,
  "èħ°éĥ¨": 117334,
  "å°Ĩè¿ĳ": 109297,
  "ĠTU": 69414,
  "ĠvÃ¥r": 96497,
  "topics": 55152,
  "æ¹ĵ": 123090,
  "ĠFill": 21979,
  "áĭ¶": 149567,
  "Ġpersec": 37468,
  "ĉK": 39340,
  "SCRIPTION": 23409,
  "ĠFrancesco": 88599,
  "çļĦæľīæķĪ": 107474,
  "Ġoperators": 19624,
  "very": 1204,
  "éĵº": 100816,
  "æĿ¥èĩª": 101919,
  "Ġflowed": 84650,
  "[Double": 63457,
  "çł¹": 120347,
  "_lengths": 54416,
  "éĹ¨åīį": 109967,
  "Ġaccessory": 41981,
  "ĠRESOURCE": 76065,
  "ilitating": 75154,
  "æª¢æŁ¥": 113574,
  "ï»¡": 144883,
  "itemap": 25330,
  "(PORT": 62302,
  "eyer": 34372,
  "ä»¥äººæ°ĳ": 118873,
  "IDI": 32272,
  ".Real": 95552,
  "ould": 616,
  "ĠÐ¸ÑģÐ¿Ð¾Ð»ÑĮÐ·ÑĥÐµÑĤÑģÑı": 143248,
  ".setParameter": 55192,
  "ĊĊĊĊĊĊĊ": 34583,
  "ĠRobert": 8397,
  "ĠØ£Ø¬ÙĦ": 130214,
  "=${": 12581,
  "mesh": 23506,
  "gnore": 10289,
  "bane": 35914,
  "èĻ»": 120120,
  ".Toolkit": 52542,
  ".signature": 75185,
  "Ġaussi": 27363,
  "â²Ń": 150744,
  "ĠvehÃŃculo": 139759,
  "/*Ċ": 3284,
  "Ġ×ĺ×ķ×¢×Ł": 143767,
  "ĠParcel": 42994,
  "Ġdeduct": 36810,
  "Extreme": 92518,
  "drop": 6719,
  "Hook": 31679,
  "Ġviewpoint": 58385,
  "Ġ,(": 80592,
  "ê±´": 124873,
  "ĠCarnival": 77744,
  "Ġ×ŀ×Ļ×ľ×Ļ": 134533,
  "Ġkoje": 96499,
  "×ķ×¡×£": 126016,
  "Ġjorn": 71349,
  "(suite": 89516,
  "_subset": 47532,
  "Ġdances": 72706,
  "Ġuphill": 76658,
  "å¼Ģå±ķ": 100340,
  "_dd": 43174,
  "éĽĨä¸Ńåľ¨": 110678,
  "ĠØ¨Ùĩ": 81768,
  "ĠCÃ¡": 130494,
  "éĥ¨éĸĢ": 114250,
  "ĠIrma": 98392,
  "ËĦ": 148560,
  "ĠÐ¾ÑĢÐ³Ð°Ð½Ð¸Ð·Ð¼": 134280,
  "ween": 1780,
  "(Gtk": 72002,
  "Ġextrapol": 70362,
  "Ġdescripcion": 55690,
  "|--": 80495,
  "çİ¿": 122398,
  "å¤§å¤§": 102584,
  "åįłæľī": 103327,
  "ëª¸": 137842,
  "Ġdissemination": 86664,
  "Ã¼lt": 89541,
  "(IDC": 65019,
  "ĠCapitol": 31533,
  "Ð¸ÑĪ": 139591,
  "Ġdrip": 72499,
  ".mousePosition": 81666,
  "éĤ®ä»¶": 102955,
  "å¹ŀ": 121625,
  "ism": 2142,
  "Ġadjusted": 23368,
  "ustria": 84812,
  "Ġfourn": 80894,
  "']))čĊ": 67293,
  ".capture": 60523,
  "Qui": 61445,
  "×ł×Ļ×Ļ×ĵ": 137377,
  "Ġskill": 9947,
  "ĠsÃ¼recin": 139890,
  "æ¯Ĵ": 99586,
  "Beat": 43658,
  "ĠgetDate": 60166,
  "Ġpleasures": 71874,
  "Boom": 94234,
  "Ġcompressor": 58877,
  "Ġà¸ŀà¸¤à¸©": 143147,
  "à¸Ħà¸Ń": 132116,
  "Ġintegers": 25780,
  "Ġpossessed": 42790,
  "Ġgenre": 17328,
  "ĠAur": 34631,
  "inis": 84603,
  "æļ": 87299,
  "qc": 59833,
  "äº¿åħĥ": 82995,
  "å¾Īå¥½çļĦ": 104528,
  "Ġshutting": 50026,
  "ì§Ļ": 145210,
  "_PREVIEW": 98990,
  "à¸ªà¸Ńà¸ĩ": 126650,
  "@return": 65003,
  "-Regular": 87591,
  "=None": 5856,
  "Jones": 72098,
  "çĥģ": 103514,
  "velope": 18853,
  "èĥ¨": 120175,
  "ids": 3365,
  "-api": 23904,
  "æĪķ": 119990,
  "èĭ§": 122292,
  "Ġpthread": 19937,
  ":D": 63843,
  "ĠSESSION": 65342,
  "å¸ĸåŃĲ": 110932,
  "å¼±åĬ¿": 116361,
  "Ġsheets": 24140,
  ".calendar": 55482,
  ".toByteArray": 66184,
  "è¯¥æĢİä¹Ī": 110801,
  "áĳİ": 148907,
  "çĪ¸": 99962,
  "?}\",": 52652,
  "à¸¹à¸¥": 91200,
  "Ġ×ĳ×ŀ": 125014,
  "Ġformats": 19856,
  "Ġedm": 65340,
  "Ġrepell": 87774,
  "-badge": 88076,
  "Ġfascinated": 60814,
  "Ġabstract": 8115,
  "ç§°ä¹ĭä¸º": 108950,
  ".localScale": 45733,
  "ancellationToken": 23927,
  "niÄĻcie": 139896,
  "ĠstyleUrls": 17650,
  "berger": 48020,
  "Ġwouldn": 8270,
  "abinet": 75512,
  "ĠÐ¾Ð¶Ð¸Ð´Ð°": 137929,
  "èĭ±æł¼": 110545,
  "æł¸æ¡ĥ": 111474,
  "à¹ģà¸§": 132503,
  "ĠAPS": 91781,
  "çģ¿": 103322,
  "æį®ç»Łè®¡": 109714,
  "Ġdish": 12000,
  "ÐºÐ¾Ñģ": 135337,
  "Ġarab": 51312,
  "../../../": 26744,
  "Ġscreenshots": 48720,
  "mui": 67466,
  ".emplace": 30791,
  "premium": 84594,
  "EPROM": 49327,
  "ĠInstruments": 57413,
  "Ġelectorate": 61468,
  "ĠWN": 77264,
  "Õµ": 145680,
  "Ġticker": 46987,
  "(dllexport": 91035,
  "//{{": 77146,
  "ĠCommandType": 36927,
  "Ġfro": 12799,
  "_clk": 36500,
  "ĠGAME": 31336,
  "çĤĸ": 110798,
  "åıĹæįŁ": 109684,
  "Ġlords": 89113,
  "CD": 6484,
  "Ġ×ŀ×Ļ×ĵ×¢": 129886,
  "Ġgratuita": 95775,
  "_mouse": 39203,
  "UMP": 23730,
  "_own": 82100,
  ".life": 82800,
  "_PHONE": 59704,
  "âĵĵ": 147889,
  "Ġnostro": 83569,
  "Ġpodcast": 17711,
  "/site": 47881,
  "âĵī": 148856,
  "Argentina": 95417,
  "(conn": 20571,
  "Ġtion": 72252,
  "Ġanguish": 94922,
  "ĠSAY": 84629,
  "ĠglBegin": 93121,
  "ĠmÃ¡y": 128392,
  "Ġbooks": 6467,
  "åĸ»": 101773,
  "<count": 55811,
  "ãĪİ": 149705,
  "erp": 22632,
  "Singapore": 91828,
  ".SERVER": 86589,
  "Ġrequire": 1373,
  "_arguments": 43433,
  "ĠSTORY": 82840,
  "ĠWIN": 22064,
  "Choose": 24051,
  "Ġcelebrities": 39401,
  "Mapped": 83345,
  "Ġgenerators": 43063,
  "å¥ĭåĬĽ": 110521,
  "_PUT": 88429,
  "Ġë¯¸êµŃ": 132662,
  "Ûį": 150395,
  "çĸ¾çĹħçļĦ": 109484,
  "å°ıç»ĦèµĽ": 113295,
  "ĠKurdish": 41640,
  "'T": 17323,
  "è´µéĩĳå±ŀ": 115862,
  "åĶ±çīĩ": 115142,
  "ĉcd": 72826,
  "crypto": 35772,
  "_bounds": 36878,
  "unsafe": 38157,
  "ĠFetchType": 77182,
  "ãĢĨ": 144909,
  "ãģĿãĤĮãģ¯": 130146,
  "é¢Īéĥ¨": 117591,
  "ĠOd": 24560,
  "é¦ĳ": 121482,
  "ì¶©": 131347,
  "ĠIndiana": 21591,
  "åķĨåŁİ": 106321,
  "ĠJuly": 5768,
  "ï¤ķ": 149807,
  "Ġbehaviors": 27099,
  "Ġcharity": 22846,
  "ç¬¼": 101600,
  "(GLFW": 73209,
  "{})Ċ": 37790,
  "×Ĳ×¨×Ĵ": 127350,
  "Ġseiner": 53936,
  "ĠResize": 63343,
  "Ġspotlight": 36873,
  "ĠSheldon": 77610,
  "Ġrubbed": 66754,
  "(line": 8797,
  "_register": 14000,
  "ĠDust": 31993,
  "mÃ¶": 127846,
  "æ¯Ķè¾ĥ": 99792,
  "ĠuseCallback": 43505,
  "_outline": 72980,
  "Ġ*>(": 28565,
  "Ġ+=": 1421,
  "Ġil": 3815,
  "æµ®": 100825,
  "Ġpropaganda": 29517,
  "çĭĲ": 100324,
  "_nums": 51875,
  "æ±Ľ": 103568,
  "ynn": 58260,
  "PG": 11383,
  "Ġbure": 30761,
  "Ġcadastr": 86177,
  "ÙģÙĨØ§Ø¯ÙĤ": 135318,
  "Ġchuckled": 96611,
  "ANO": 54894,
  "é¤®": 121970,
  "âĸ¶": 144069,
  "ĠSoros": 70187,
  "è´¹": 80268,
  "æ°ĺ": 119614,
  "à¬½": 150426,
  "å¸¸æĢģåĮĸ": 108870,
  "Ġdisparity": 65849,
  "Spark": 67483,
  "ð¬Ģª": 122304,
  "[$_": 96980,
  "Ġbios": 48454,
  ".style": 7353,
  "ĠprojectId": 41696,
  "eta": 1915,
  "ckeditor": 62324,
  "(gc": 78657,
  "getline": 56692,
  "orption": 65081,
  "Ġconferences": 37514,
  "Ġulcer": 95871,
  "Exports": 86994,
  "ĠÑģÐµÐ·Ð¾Ð½": 135071,
  "esta": 29179,
  "ĠDM": 20192,
  "æĲľæķĳ": 118131,
  "×ķ×Ľ": 124047,
  "ĠparticipaÃ§Ã£o": 140294,
  "edu": 55101,
  "Ġswings": 56790,
  "Ġsublic": 28491,
  "createView": 75613,
  "ĠØµØ§ÙĦ": 137263,
  "Ġtweaks": 62337,
  "å®¶éĹ¨åı£": 111124,
  "ĠÑĦÐµÐ²": 140718,
  "ĠDuffy": 85862,
  "feof": 85670,
  "æĦıå¤§": 105100,
  "Ġaproxim": 94424,
  "olith": 47118,
  ".Gr": 61778,
  "é£İåĲ¹": 109520,
  "êĻĭ": 151431,
  "ĠOFFSET": 48104,
  "WEST": 94225,
  "Ġphosph": 31988,
  "ĠznajdujÄħ": 139699,
  "Ġkulland": 142135,
  "Ġshortcuts": 54920,
  "Ġfading": 58517,
  "ç»´æĬ¤": 101999,
  "export": 1533,
  "ë¿Ĳ": 127871,
  "á½»": 145641,
  "Ġthá»¥": 135364,
  "é«ĺç©º": 110331,
  "adiator": 67808,
  "MRI": 78670,
  "ĠSenate": 9891,
  "çĶŁçĲĨ": 107086,
  "à¸Ħà¸£": 123886,
  "çķ¿": 121698,
  "ĉUObject": 86289,
  "_tree": 11663,
  "å½": 14273,
  "å®¶ä¹¡": 105686,
  "åŃ©ç«¥": 112976,
  "Ġsimilarly": 29193,
  "à¹Ģà¸ģà¸·à¸Ń": 139278,
  "rides": 18245,
  "aki": 14624,
  "ðŁĽµ": 146695,
  "à¶Ķ": 150451,
  "arto": 35943,
  ".am": 13590,
  "ĠPod": 16821,
  "ĠChanging": 50169,
  "Old": 18284,
  "PCI": 53702,
  "_boundary": 54004,
  "Ġteaspoon": 41284,
  "Ident": 28301,
  "Fan": 58277,
  "åĸľæ¬¢": 99729,
  "ĠIslamist": 51493,
  "Ã©rÃ©": 67762,
  "éŃį": 121913,
  "plugins": 18716,
  "æĤ¬å´ĸ": 115637,
  "Ã¼l": 35524,
  "erg": 2375,
  "æĮ¯å¥ĭ": 115911,
  "Ġconjug": 63280,
  "åĩ": 12585,
  "Ġtn": 43308,
  "åħ¬è¯ī": 118060,
  "-comments": 77154,
  "ĠMant": 50968,
  "/basic": 77909,
  "(ti": 87489,
  "Ġautof": 44445,
  "Ġcriticized": 31514,
  "×ŀ×Ĳ×ķ×Ĺ×¨": 138610,
  "ëĭł": 149083,
  "Ġfifteen": 36655,
  "ĠÑįÐºÐ¾Ð½": 138360,
  ">w": 16300,
  "[it": 57196,
  "Ġ\"": 330,
  "æıĲé«ĺ": 100627,
  "Ġsistem": 68886,
  "_platform": 34260,
  "ĠCardiff": 60592,
  ".iter": 19471,
  "Ġresidences": 84771,
  "ĠRisk": 31288,
  "';ĊĊĊĊ": 71146,
  "ĠpossibilitÃł": 133231,
  "preter": 28637,
  "DED": 11490,
  "æ¼¦": 123424,
  "extends": 15231,
  "ÐĹ": 35451,
  "Ġbabel": 79826,
  "Videos": 55106,
  "_coverage": 73384,
  "Ġparsers": 87073,
  "ï¸º": 147262,
  "Accounts": 41369,
  "è®¸": 99454,
  "Ġcohorts": 89288,
  "arn": 1885,
  "ÙģØµ": 132992,
  "ĠTHE": 3168,
  "ĠIncrement": 52835,
  "//--------------------------------": 48256,
  "Brit": 35228,
  "ĠBears": 35968,
  "Ġlname": 76139,
  "_COMPILER": 87009,
  "ĠêµŃê°Ģ": 133152,
  "ðĿĺ«": 149898,
  "ï¨Ħ": 146719,
  "Ġsolver": 28961,
  "Ġtreated": 11758,
  "_putstr": 74475,
  "substring": 33874,
  "å®ī": 50285,
  "è§īå¾Ĺå¾Ī": 113726,
  "(icon": 44342,
  "ĠonClick": 5697,
  "FOR": 30902,
  ".upload": 32396,
  "à¸ķà¸±à¸Ķ": 127240,
  "(SC": 59461,
  "åħ¨ãģı": 133469,
  "ĠSaÃºde": 136360,
  "Ġdownturn": 75406,
  "ëĳģ": 150901,
  "']=": 19993,
  "ittel": 95283,
  "çĸ¢": 122511,
  "allah": 76478,
  "Ġsadly": 43045,
  "ĠShar": 35116,
  "à¸ļà¸¸à¸Ħ": 132445,
  "_TRUE": 14044,
  "waves": 57265,
  "UNK": 31883,
  "ĠÐ´ÐµÑıÑĤÐµÐ»ÑĮ": 127359,
  "Ġclip": 12327,
  "WITHOUT": 68435,
  "(argv": 15329,
  "æ¶ĪåĮĸ": 105251,
  "Ġperverse": 94804,
  "ĠTamil": 43783,
  "ĠBrake": 75261,
  "Now": 7039,
  "Ġbead": 74507,
  "ĠBers": 86275,
  "Article": 16651,
  "_balance": 29396,
  "ĠModelo": 90518,
  "å½¢æĢģ": 102533,
  "Ġrelating": 22527,
  "ĠHaw": 12611,
  "ä¸ĬéĻĲ": 112636,
  "çļĦå°±æĺ¯": 105729,
  "Ġ\";ĊĊ": 41620,
  "à¹Ģà¸«à¸¥à¹ĩà¸ģ": 140159,
  "íķŀ": 151096,
  "ãģ¦ãģĹãģ¾ãģĨ": 131294,
  "áĢī": 150203,
  "ìĸĲ": 149982,
  "pageNumber": 84727,
  "ä¸ĬãģĮãĤĭ": 143929,
  "Ġrumpe": 98580,
  "åıĬãģ³": 139711,
  "('''": 83434,
  "Ġdiagonal": 37236,
  "Ġ×ŀ×ŀ×©": 129098,
  "Ø¨ÙĬØ§ÙĨ": 130793,
  "çĤľ": 115700,
  "Ġ×¢×ĳ×ķ×ĵ×ķ×ª": 142881,
  "ĠsharedPreferences": 61057,
  "*h": 54286,
  "Ġencoding": 11170,
  "ĠBlizzard": 52033,
  "Ġcic": 53777,
  "ĠQUEUE": 97239,
  "xAD": 79447,
  "åĢ¼å¾Ĺä¸ĢæıĲ": 108138,
  "HAV": 72239,
  "ì¡Įëĭ¤": 141798,
  "_;ĊĊ": 22663,
  "ëŃį": 146644,
  "ĠClearly": 53404,
  "gpu": 42594,
  "×¤×ķ×¨×¡×Ŀ": 132404,
  "[text": 67810,
  "Ġsed": 10923,
  "Ġconforms": 95164,
  "Ġmurder": 9901,
  "áµĸ": 149305,
  "Ġmasse": 57517,
  "Ø¬ÙĬÙĦ": 127039,
  "à¸²à¸¢": 123835,
  "_usec": 43047,
  ".ul": 67006,
  "Ġloung": 83144,
  "<ArrayList": 71235,
  "ĠViá»ĩt": 128324,
  ".related": 47403,
  "landÄ±r": 128112,
  "ĠTuring": 94430,
  ".idea": 95072,
  "èĥľ": 99813,
  "Ġmirrors": 40485,
  "ĠLunch": 55599,
  "æ¹ī": 121054,
  "Ġ></": 26607,
  ".intersection": 97075,
  "×ĳ×ĵ×Ļ×§×ķ×ª": 142936,
  "ĠgÃ¶nder": 127520,
  "êº": 124581,
  "JOR": 77080,
  "ĠTennis": 57151,
  "ĉcase": 2722,
  "ĉInputStream": 95598,
  "_PROD": 89799,
  "ĠSuk": 73774,
  "Ġexpert": 6203,
  ".contract": 51635,
  "fork": 44738,
  "_corners": 82774,
  "_RESOURCE": 38208,
  "æĦıè§ģåıįé¦Ī": 113986,
  ".Hide": 44429,
  "à®Ĩ": 149531,
  "OUNTER": 35019,
  ".some": 47947,
  "å¨Ħ": 116538,
  "ĠLol": 79137,
  "union": 16192,
  "Ġdesigns": 14431,
  "æ°¡": 120148,
  "åīįéĿ¢": 104648,
  "áŀł": 148449,
  "ĠÐ¾Ð±ÑĬÑı": 136914,
  "uell": 41658,
  "æįĮ": 119370,
  "Ġvaluation": 50162,
  "Ġcontinue": 3060,
  "à¹ģà¸«à¹īà¸ĩ": 140501,
  ".randomUUID": 61842,
  "Ġpaid": 7171,
  "Billing": 82007,
  "éĢĤåºĶ": 104117,
  "èı©": 101670,
  "bullet": 39460,
  "ĠCAL": 32907,
  "Autowired": 13192,
  "umo": 64625,
  "ĠNottingham": 66559,
  "ä¸įåĩº": 101480,
  "=\"{{": 5682,
  "Ø¹ÙĦ": 123987,
  "âĢ¦âĢ¦âĢ¦âĢ¦": 38325,
  "æİ¥è¿ĩ": 111682,
  "Ġboast": 58127,
  "filtro": 93749,
  "è¢«è¯Ħä¸º": 107367,
  "Ġapparatus": 40605,
  "Ġpolls": 23056,
  "carrier": 65985,
  "edom": 8769,
  "Ġfolklore": 97869,
  "Ġsky": 12884,
  "Ġachieved": 16994,
  "ĠPartialEq": 55039,
  "ĠTrey": 81460,
  "Judge": 60256,
  "Ġmolec": 16671,
  "ĠÐ¾ÑĤÐ¼ÐµÑĤÐ¸ÑĤÑĮ": 143758,
  "Ð²Ñĥ": 133064,
  "stars": 36638,
  "Equal": 2993,
  "ĠBackpack": 71660,
  "-reset": 76403,
  "ð¦Ńľ": 122290,
  "Ġhinges": 79834,
  "ĠYours": 96918,
  "*>(": 15157,
  "âīı": 149027,
  ".lang": 8019,
  "à¸Īà¸²": 130536,
  "ĠCounseling": 88449,
  "Spacing": 27026,
  "VERY": 30519,
  ".fetch": 16121,
  "æĳ": 97946,
  "éĻĦä»¶": 108396,
  "antly": 17548,
  "ĠPrec": 41670,
  "Ġconduct": 6786,
  "å¸ĸ": 102843,
  "å»ºæĿĲ": 105547,
  "ç£»": 123609,
  "MD": 6076,
  "ĠDefence": 38907,
  "Ġzipfile": 86952,
  "Winvalid": 54237,
  "semester": 61536,
  "ĠPvt": 60675,
  "çļĦéĩįè¦ģæĢ§": 106508,
  "ĠÐ´Ð²Ðµ": 132676,
  "enden": 19875,
  "ardown": 37496,
  "Experts": 86141,
  "whereIn": 85493,
  "ĠFiona": 88843,
  "adays": 33976,
  "Ġhesitate": 38566,
  "Ġmere": 17524,
  "×©×ľ×ķ×©": 130824,
  "!(:": 49116,
  "ĠMSP": 68373,
  "]},Ċ": 57352,
  "æĪĳæ²¡": 110985,
  "\")==": 43664,
  "actual": 11944,
  "anton": 30954,
  "Ġbada": 143378,
  "ĠMun": 27882,
  "Ġstddev": 87867,
  "ĠÑįÑĤÐ°Ð¿": 137232,
  "çļĦåĽŀçŃĶ": 111423,
  "Ġwhirl": 63683,
  "Ġvegan": 29149,
  "Ġpacman": 96864,
  "olics": 45907,
  "collectionView": 42440,
  "ĠWrapper": 35488,
  "Î¡": 145205,
  "Begin": 11135,
  ".Scope": 77940,
  "ĠWii": 39192,
  "(\"\");": 97918,
  "ĠrelaciÃ³n": 68197,
  "Ø¸Ùĩ": 137731,
  "Var": 3962,
  "ĠÃŃnd": 143282,
  "neutral": 59568,
  "ĠAtlantic": 22375,
  "anager": 8184,
  "èıĿ": 122764,
  "à¹Ģà¸Ľà¸¥à¸µà¹Īà¸¢à¸Ļà¹ģà¸Ľà¸¥": 135287,
  "Ġ×ľ×©×ŀ×ķ×¢": 141730,
  "æĿ": 13949,
  "xFF": 9264,
  "Ð¾Ñı": 60290,
  "Ġwildly": 47195,
  "Ġi": 600,
  "ĠcreateUser": 60754,
  "è²·ãģĦçī©": 142359,
  "ĠBengal": 49020,
  "ĠOn": 1913,
  "åĵĪå°Ķ": 106426,
  "basic": 22342,
  ",//": 35475,
  "åĲ¬å¾Ĺ": 110113,
  ".awtextra": 59007,
  "ISTER": 19522,
  "Ġeigen": 28724,
  "Ġcpp": 46824,
  "Ġ(;": 30375,
  "ç»®": 114800,
  "Ġcompensation": 19857,
  "AVAILABLE": 73078,
  "ĠgetVersion": 97245,
  "ĠÐ²Ð¾Ð´Ð¾": 134841,
  "ãģªãĤĵãģ§ãģĻ": 135389,
  "_human": 86247,
  "gmt": 46063,
  "Published": 28886,
  "Ġoptimism": 53408,
  "ĠPoetry": 67687,
  "-sector": 88111,
  "gn": 4905,
  ".SP": 67695,
  "owering": 89614,
  "à¸ľà¸¥à¸ĩà¸²à¸Ļ": 133217,
  "Ø¶ÙĬÙģ": 132956,
  "ruit": 21026,
  "ĠME": 16292,
  "Ø¯Ø§Ø¹Ø´": 136761,
  "Ġbecomes": 9044,
  "ĠVert": 15058,
  "Ø¥ÙħÙĥØ§ÙĨÙĬØ©": 143422,
  "åĽºçĦ¶": 109846,
  "BTC": 59118,
  "Ġvá»¯ng": 135584,
  "ĠbaÅŁlat": 137188,
  "Ġferm": 80582,
  "ĠCheckout": 56735,
  ";m": 67236,
  "setAttribute": 31317,
  "ĠÃŃch": 130123,
  "agne": 23870,
  "ĠAtlanta": 19440,
  "ĠÐºÐ°Ð½Ð°Ð»": 138206,
  "ãģĿãģĵ": 125818,
  "è®¾æĥ³": 109079,
  "çĶŁäº§åŁºåľ°": 108665,
  "ðĿĶı": 150290,
  ".setItems": 98132,
  "ĠGuid": 12157,
  "åı¦è¡Į": 113547,
  "ĠKitt": 80667,
  "å®¶åºŃæķĻèĤ²": 116414,
  "è¯´åĪ°": 102855,
  "ĠØ§ÙĦÙģØ±Øµ": 142847,
  "ĠbÃ¥de": 79742,
  "ÑĤÐµÐ»ÑĮ": 124563,
  "âŀ´": 148480,
  "villa": 63338,
  "ä¹ĭåĪĿ": 108957,
  "Attack": 28602,
  "çī¹ãģ«": 129937,
  "Ġjour": 9682,
  "Ġ×Ĳ×ª": 125005,
  "-One": 90377,
  "é©¬åħĭ": 112327,
  "ãģĵãģĿ": 131741,
  "_Item": 27518,
  "×ĳ×Ļ×¦×ķ×¢": 131952,
  "ĠResident": 59676,
  "Ġinv": 1529,
  "Withdraw": 92261,
  "ilarity": 48225,
  "Ġbietet": 60729,
  "Ġ;": 2587,
  "_Do": 93481,
  "èĹį": 112262,
  "ĠÐ½Ð°Ð»Ð¸Ñĩ": 128139,
  "Ġ<!": 71341,
  "Ø·Ø¹Ùħ": 136378,
  "ouncill": 45403,
  "ĠGaza": 28662,
  "ãħı": 145928,
  "ìĦ": 14559,
  "isma": 38152,
  "æĺ¯æľĢ": 104890,
  "à¹Ģà¸ªà¸²": 140739,
  "(panel": 49542,
  "Ġdeep": 5538,
  "ĠÃ§erÃ§eve": 141515,
  "å¥½ãģ¿": 140682,
  "ÑĢÐ°Ð´": 125879,
  "åıįæĩī": 117880,
  "åķĨæľº": 110826,
  "===============": 44908,
  "×Ļ×Ļ×©": 143153,
  "-filter": 32448,
  "ĠEmil": 87724,
  "Ġspace": 3550,
  "å¤ļäºº": 102823,
  "Ġparsed": 15676,
  "ĠFriedrich": 79374,
  "Ġ(*(": 38707,
  "Ġgratis": 7126,
  "ĠLimits": 71855,
  "Ġprostitu": 38622,
  "ed": 291,
  "Ġislands": 29000,
  "ĠHentai": 92042,
  "clone": 19982,
  "ĠNPR": 44200,
  "itate": 19652,
  ".nome": 44154,
  "ĠØ§ÙĦØ²ÙĪØ¬": 139155,
  "ð«··": 123073,
  "pecting": 65348,
  "ÙĬÙģØ©": 126756,
  "ä¸¨": 106847,
  "ĠexercÃŃcio": 141448,
  "ä¸ĢèĪ¬çļĦ": 107104,
  "Ġracist": 24207,
  "çī©æĸĻ": 110288,
  "èµĦç®¡": 114395,
  "?ĊĊĊ": 30831,
  "ĠElk": 87606,
  "å¹²æī°": 107696,
  "gni": 46242,
  "Ġpassive": 27879,
  "ickle": 25606,
  "Outputs": 61438,
  "è¯Ł": 119985,
  "Ġgangs": 54123,
  "çı²": 120292,
  "-options": 39733,
  "Ġhablar": 95743,
  "Ġjquery": 61701,
  "house": 7675,
  "ĠMaul": 93201,
  "éĢ¦": 120343,
  "éĶĨ": 120959,
  "é»ī": 123590,
  "loom": 18474,
  "_make": 28230,
  "ĠvÃ¤l": 82924,
  "ĠBrend": 38964,
  "stial": 50606,
  "_DEFINE": 46807,
  "_enemy": 73682,
  "anonymous": 25280,
  "ĠSystem": 739,
  "Ġbeer": 12883,
  "ĠWashing": 81138,
  "ĠPartialView": 90081,
  "ĠBarry": 30758,
  "ĠArmed": 41394,
  "é«ĺå±±": 110711,
  ".cc": 27812,
  "-million": 45049,
  "ï²ı": 148094,
  "åħ¶å®ŀæĺ¯": 105875,
  "subnet": 88636,
  "åŃĹåı·": 103368,
  "Qual": 31029,
  "Ġdernier": 61791,
  "ordes": 80392,
  "ĠPron": 86915,
  "ĠCommit": 9205,
  "ĠOculus": 55384,
  "âĿ´": 148896,
  "-pressure": 88461,
  "_predict": 26815,
  "ĠModelRenderer": 81010,
  ".dataSource": 34832,
  ".Price": 49163,
  ".Location": 4515,
  "method": 4393,
  "SHA": 33145,
  "\"><!--": 78993,
  "ĠFoam": 76456,
  "×Ĵ": 123799,
  "ĠFolk": 64237,
  "/tutorial": 85252,
  "izophren": 45312,
  "=set": 68800,
  "ê°Ķ": 138863,
  "ĠCanary": 98956,
  "ĠMarketing": 18228,
  "ĠÐ´Ð¾ÑħÐ¾Ð´": 136937,
  "lÃŃ": 128910,
  "ĠcontentView": 63253,
  "ĠPont": 39770,
  "{name": 47006,
  "ãģ®ãģ§ãģ¯ãģªãģĦãģĭ": 137946,
  "~-": 49994,
  "Ġrecher": 87717,
  "èĤ·": 122343,
  "/pkg": 22523,
  "æģ³": 113717,
  "ĠMarijuana": 64839,
  "×ķ×Ļ×ĵ×Ĳ×ķ": 138261,
  "æł¼å°ĩ": 114475,
  "çĪ±äºº": 110656,
  "èĥ«": 120184,
  ".RichTextBox": 96474,
  "ĠConnecticut": 30361,
  "AMERA": 87909,
  "Ġcrossorigin": 30901,
  "ä¼¸åĩº": 108497,
  "lassian": 89597,
  "ĠRune": 70778,
  "Ġjos": 87886,
  "_LANE": 68488,
  "ĠPTR": 55196,
  "Warm": 95275,
  "NSMutableArray": 27754,
  "[['": 56330,
  "ĠPhysician": 87198,
  "(prop": 30638,
  "ĠgetItemCount": 59772,
  "ĠÑĦÐµÐ²ÑĢÐ°": 140719,
  "Ġnums": 10307,
  "rl": 2381,
  "ðŁ¥ģ": 147438,
  "Ġwhipped": 63257,
  "Ġsaved": 6781,
  "Ġspider": 34354,
  "continuous": 78589,
  "UNICATION": 98032,
  "Ġdisproportionate": 79053,
  "Ġdigging": 41100,
  ".Features": 73257,
  "å¼¯æĽ²": 112263,
  "ĠMurder": 51383,
  "Ġbtw": 89857,
  "ĠDÆ°Æ¡ng": 130695,
  "ĠtÃ¢m": 128396,
  "ĠÃĩÃ¼nkÃ¼": 133829,
  "åĿĢ": 40623,
  "Ġillnesses": 48809,
  "Door": 52260,
  "town": 27831,
  "Ġchauff": 73717,
  "è®©å¥¹": 105655,
  "æŀ¢": 100980,
  "Ġofrec": 63095,
  "Ġ×ł×ķ×ľ×ĵ": 140556,
  "Complex": 31137,
  "à¸¢à¸§": 125293,
  "ç¥Ĭ": 122360,
  "Ġveteran": 20820,
  "emann": 79898,
  "ĠÐ¿ÑĢÐ¾Ð´Ð¾Ð»Ð¶": 136702,
  "æ¼Ķå¥ı": 110327,
  "Ġgdzie": 95491,
  "åĲİåı°": 110165,
  "æ¯³": 120970,
  "Ġmarching": 61098,
  "èĤĭ": 111717,
  "Ġmastering": 87761,
  "é¾ĩ": 121402,
  "ä¸Ĭå¸Ŀ": 106020,
  "Ġnominations": 59598,
  "ĠLock": 15701,
  "(argc": 28680,
  "æĪĳå¿ĥéĩĮ": 111828,
  "Ø": 148,
  "áº®": 144166,
  "Regions": 79284,
  "Ġunsustainable": 97509,
  "ä¸´åºĬ": 104595,
  "(rgb": 66323,
  "Ġà¸ģ": 126675,
  "/pm": 97989,
  "ĠminHeight": 64385,
  "ð¥»": 121667,
  "PHONE": 74998,
  "\"c": 96946,
  ":num": 55268,
  "Ġremin": 42550,
  "Î·": 41424,
  "Agent": 16810,
  "Ġgoodness": 38426,
  "æĹħè¡Į": 102275,
  "cci": 56708,
  "ĠMango": 90863,
  "-present": 48024,
  "à¹ģà¸®": 138777,
  "_block": 7113,
  ".vocab": 77457,
  "ç¼ĸè¾ĳ": 57019,
  "bnb": 44002,
  "Ġdisadv": 29847,
  "èıª": 120601,
  "ĠÐ¼Ð°ÑģÑģÐ¸Ð²": 50237,
  "Ġeyes": 6414,
  "Donald": 18234,
  "éĶ°": 119113,
  "ĠÑĥÐ²ÐµÐ»Ð¸ÑĩÐ¸": 136326,
  ".old": 46061,
  "-that": 93500,
  "(cat": 53600,
  "ĠAccepted": 63289,
  "_boost": 84913,
  "ĉĉĉĉĉĊĉĉĉĉĉĊ": 96090,
  "çĳª": 118555,
  "èį»": 120318,
  "treeview": 79205,
  "ĉvoid": 4304,
  "åľ°åŁŁ": 106002,
  "Ġdraft": 9960,
  "cache": 9360,
  "telefone": 78130,
  "]]Ċ": 14288,
  "tein": 38240,
  "âķĭ": 149042,
  "thumbnails": 86109,
  ".responses": 97961,
  "iges": 51663,
  "sock": 13199,
  "Ġjihadist": 96044,
  ");}ĊĊ": 92986,
  "å¢ŀèĩ³": 116773,
  "å¿ħéłĪ": 107305,
  "Ø³ØªØ·ÙĬØ¹": 135482,
  "åįİæ¶¦": 112373,
  "aggable": 84896,
  "ĠÐ¡Ð¨ÐĲ": 133918,
  "friends": 29462,
  "Ġshielding": 96676,
  "trieve": 34216,
  "Running": 18990,
  "/mysql": 57515,
  "ä¼łå¥ĩç§ģæľį": 104290,
  "ref": 1097,
  "Ġtelefon": 42150,
  "trace": 15067,
  "_gc": 49423,
  "escaping": 42480,
  "Ġvisualization": 41048,
  "BeenCalled": 30823,
  "Part": 5800,
  "Ġ×ª×ŀ×ķ×ł×Ķ": 139823,
  "çŃīå·¥ä½ľ": 107544,
  "ĠBlob": 49439,
  "Ġlcm": 86079,
  ">manual": 26667,
  "[in": 15375,
  "corr": 59277,
  "å¹«": 103307,
  "éĤĿ": 119574,
  "Ġ(),": 38104,
  "ðĵı": 128234,
  "RAFT": 53958,
  "åķıé¡Į": 104832,
  ".ReadAll": 41851,
  "ä¹ŁéľĢè¦ģ": 108335,
  "Ġbecause": 1576,
  "ticks": 35078,
  "loat": 1239,
  "atrice": 67536,
  "ĠSteak": 84243,
  "ìĭ¤": 125086,
  "('-": 14654,
  "ĠÐ»ÑİÐ±Ð¾Ð¹": 134706,
  "$v": 65020,
  "çĸŃ": 120204,
  "Ġrig": 13249,
  "====Ċ": 62896,
  "éĽ¾éľ¾": 116309,
  "æł¡åĽŃ": 104262,
  "[selected": 88906,
  "Ġmini": 13420,
  "ategory": 2031,
  "Ġsulla": 56970,
  "cost": 16440,
  "åĽĽåįģ": 107035,
  "ĉdd": 92265,
  "çħ": 99302,
  "Ġactivates": 73942,
  "ĠswÃ³j": 136865,
  "èĲ¥åķĨ": 105163,
  "Ġfrying": 86096,
  "Ġtidal": 85459,
  "Ġaccumulating": 91585,
  "timestamps": 33591,
  "åĭŁéĽĨ": 103365,
  "_selector": 28890,
  "×©×ĳ": 124281,
  "Ġduke": 95823,
  "ĠKitty": 66181,
  "Â¯": 33985,
  "Ġìļ°ë¦¬ëĤĺëĿ¼": 142337,
  "Ġargc": 11844,
  "Ġgases": 44512,
  "eness": 23709,
  "display": 5493,
  "ëĸª": 150909,
  "ä¸įåģľçļĦ": 110468,
  "ì¯¤": 144234,
  "á¸¯": 148591,
  "ĠCosta": 31280,
  "itized": 83443,
  "Ġtinha": 94948,
  "ĠØ¹ÙĦÙĬÙĨØ§": 139979,
  "Ġabortion": 20107,
  "Ġflashed": 69839,
  "ampler": 34501,
  "Ġbrag": 56694,
  "Ġlogarith": 89936,
  "commands": 24270,
  ")))));čĊ": 93389,
  "Ò°": 146630,
  "æİĢèµ·": 108805,
  "Ġdebate": 11004,
  ",list": 76351,
  "ĠÑĢÐ°ÑģÑĤÐ²Ð¾ÑĢ": 142016,
  "Ġkayak": 86978,
  "Ġformas": 83089,
  "âĪĸ": 150645,
  "izabeth": 18540,
  "Ð»Ð¸ÑĨ": 66122,
  "*k": 42466,
  "Ġro": 926,
  "rete": 83505,
  "è°Ĵ": 120805,
  "ï¯½": 146542,
  "inous": 60698,
  "Formatting": 82135,
  "grave": 76631,
  "É¤": 148851,
  "ĉconn": 32917,
  "å¤§åį«": 116234,
  "Ġpretrained": 80669,
  "äº§åŃ¦çłĶ": 114165,
  "Ġtraveling": 20971,
  "Ð¾ÑĩÐ½Ð¾Ð¹": 137933,
  "åī¯åİ¿éķ¿": 118081,
  "Ġstacking": 74072,
  "_locations": 45032,
  ".print": 2214,
  "Ġearthqu": 29750,
  "uiltin": 25628,
  "/\">": 38681,
  "éģ¿åħį": 101153,
  "ftar": 46201,
  "soever": 34554,
  "ĠChlor": 91379,
  "ĠtháºŃt": 128869,
  "ĠBasis": 69028,
  "Ġvirtual": 4108,
  "@pytest": 33863,
  "æīĭä¸ŃçļĦ": 108671,
  "istributions": 17994,
  "èµ¢å¾ĹäºĨ": 108774,
  "ĠPrimer": 87025,
  "ëģĵ": 144827,
  "Ġ];ĊĊ": 15424,
  "Ġblanket": 38039,
  "×ĳ×Ļ×ĺ": 124922,
  ")(\"": 61173,
  "Ġsperm": 39599,
  "Ġhierarchical": 69894,
  "âĮĭ": 147003,
  "ĉplaceholder": 95660,
  "ðŁĽİ": 148728,
  "ĠPur": 14532,
  "Ð´Ð°Ð½": 126837,
  "/configuration": 89442,
  "âľĦ": 146225,
  "ĠDumpster": 43264,
  "èĳİ": 122965,
  ".serial": 29818,
  "*j": 54045,
  "longleftrightarrow": 87459,
  "Ġhomosexuals": 96123,
  "åħ¨åĬĽä»¥": 111987,
  "ĠbÃ¤": 86553,
  "ĠÐ¾ÐºÑĤÑı": 139791,
  "Ġplum": 41172,
  "ĠÐķÑīÐµ": 140725,
  "(TR": 68804,
  "Ġresearched": 55998,
  "âĦĬ": 149349,
  "åĿĲåľ¨": 104427,
  "_reset": 18983,
  "ï²Ĵ": 151221,
  "ð«¶": 123016,
  "olygon": 19582,
  "alous": 29443,
  "çļĦä¼ĺåĬ¿": 105057,
  "Ġhandset": 82163,
  "logg": 93369,
  "(varargin": 66629,
  "ĠDeadpool": 93224,
  "Ġbetray": 33468,
  "(\":": 18893,
  "@Entity": 31091,
  "ashed": 13571,
  "ÙħØ¹Ø±Ùģ": 132477,
  ".JTable": 87392,
  "Ġinformatie": 97255,
  "èĤĮèĤ¤": 105105,
  "ðŁĵ½": 147122,
  "èĢģé¾Ħ": 118017,
  "à¸Ŀà¸¶à¸ģ": 133395,
  "æ¼Ĥ": 100574,
  "_DP": 71475,
  "ä½ĵéĩı": 115190,
  "âĭĦ": 149033,
  "ðŁĵĬ": 146895,
  "Ġrichness": 88930,
  "æĮĩå¯¼": 101086,
  "è¼ī": 103319,
  "StringEncoding": 59746,
  "ãĤ·ãĥ£ãĥ«": 138871,
  "_aug": 60411,
  "Ġpackage": 6328,
  ".fa": 63114,
  "Ġcant": 16464,
  "Ġwing": 20013,
  "ĠPreparedStatement": 42058,
  "æĺ¯æĪĳ": 104927,
  "íıī": 126742,
  "á½Ħ": 147035,
  "éļ¾ä»¥": 104151,
  "RAIN": 87740,
  "ä¹Łè®¸æĺ¯": 110090,
  "Ġbelie": 2818,
  "ä¼ĺç¾İ": 107004,
  "ĠFraction": 51893,
  "()),Ċ": 14702,
  "íĲ": 126178,
  "×Ķ×ª×Ĳ": 142414,
  "ê·": 89061,
  ";(": 57709,
  "éĥĲ": 122338,
  "rafted": 60769,
  "çĶŁäº§æĢ»åĢ¼": 114272,
  "Ġalot": 56238,
  "ĠjednoczeÅĽnie": 140874,
  "Ġponiew": 134308,
  ",D": 27266,
  "(employee": 53126,
  "Sci": 90692,
  "ĠSector": 40724,
  "âĶĢ": 14555,
  "(web": 39769,
  "omin": 7970,
  "ĠLogistics": 70322,
  "ĉĠĠĠĠĠĠĠĠĠĠĠĠĠĠĠĠĠĠĠ": 34513,
  "_continuous": 94400,
  "etched": 36780,
  "Ġboss": 13392,
  "æĪĲåĳĺåĽ½": 116588,
  "department": 27314,
  "GameManager": 93111,
  "DY": 69916,
  "Ã¶m": 85584,
  "ĠÙĪÙĬÙħÙĥÙĨ": 137050,
  "VEST": 70202,
  ".Runtime": 16706,
  "à¸ľà¸¥à¸´à¸ķ": 125914,
  "ä¸įæ»¡æĦı": 114146,
  "//}ĊĊ": 55342,
  "(PR": 71566,
  "ĠHolder": 40333,
  "åİ³ãģĹãģĦ": 142789,
  "éĿĴ": 99467,
  "java": 10042,
  "Closure": 53854,
  "NAME": 7535,
  "ĠMCP": 79148,
  "Ġnues": 84760,
  "Pink": 71352,
  "Ġgraduated": 32009,
  "ĠFRAME": 56416,
  "SelfPermission": 77855,
  "ekte": 66362,
  "è¾¾äºº": 111949,
  "Ġcram": 99081,
  "à¸Ńà¸ĩ": 123824,
  "ĠInstitutions": 87780,
  "eous": 33072,
  "æ¶Īéĺ²": 102148,
  "Ġther": 8962,
  "æĸ°ä¸ĸçºª": 115294,
  "Ġcanc": 62309,
  "Ġradians": 50784,
  "Ġbatch": 7162,
  "Ġlessen": 75870,
  "å½Ĺ": 120550,
  "ç¨İçİĩ": 114864,
  "ifting": 17680,
  "ĠLegislation": 71967,
  "Messages": 15820,
  "qv": 69578,
  "Ġlongtime": 35404,
  "Ġwomens": 87361,
  "æĵįä½ľ": 40090,
  "Ġspeculated": 73777,
  "ĠSH": 6434,
  "/end": 82846,
  "ĠGaw": 85538,
  "GLE": 65557,
  "son": 930,
  "ìĿ½": 135124,
  "antan": 66189,
  "ĠØ¹ÙĨØ¯": 126350,
  "Ġphenomenal": 56392,
  "ally": 745,
  "posal": 24155,
  "Ġwakeup": 91331,
  "æĸĩåĮĸ": 99348,
  "ourage": 60040,
  "ĠFs": 84619,
  "icles": 4342,
  "èºħ": 122060,
  "ëīľ": 145422,
  "Ø·ØŃÙĨ": 138763,
  "Ready": 19202,
  "ð«Ķİ": 123625,
  "TestCase": 16458,
  "ĠCardinals": 43327,
  "éħ¹": 121392,
  "waters": 98659,
  "ionic": 20764,
  "/****************************************": 72961,
  ".sol": 41703,
  "Ġdeja": 75633,
  "ĠSalvador": 48359,
  "Ġharm": 11428,
  "Ġsenza": 41926,
  "ĠTray": 64616,
  "fulWidget": 35385,
  "ĉmode": 60247,
  "å¦ĤæĦı": 110234,
  "inecraft": 12086,
  "Ġais": 88695,
  "Ġgoat": 53292,
  "ĠÙĪØ²ÙĬØ±": 130316,
  ".Escape": 83620,
  "_='": 88262,
  "æħİ": 100966,
  "éĿŀå¸¸çļĦ": 106299,
  "ãģ§ãģĤãĤĮãģ°": 131738,
  "_paths": 24152,
  "æĩ¿": 114139,
  "Ġsuction": 83778,
  "Every": 11510,
  "Ġfino": 76130,
  "Ġubiquitous": 63464,
  "lew": 74964,
  "idding": 26500,
  "igr": 5233,
  ".employee": 47146,
  "Ð¶Ð°Ð»": 131075,
  "ĠIRQ": 41668,
  "ĠSchul": 52990,
  ".PropTypes": 53384,
  "aÅĤ": 126256,
  ".ToolStripButton": 51013,
  "æķ´æ²»": 101327,
  "ĠĠĠĠĠĠĠĠĠĠĠĠĠĠĠĠĠĠĠĠĠĠĠĠĠĠĠĠĠĠĠĠĠĠĠĠĠĠĠĠĠĠĠĠ": 15429,
  "ĠFocus": 25806,
  "ãĤ¤ãĥ«": 127843,
  "Ġtonumber": 66296,
  "ĠChow": 73958,
  "Ġlooked": 6966,
  "à¸Ĭà¸¸à¸¡à¸Ĭà¸Ļ": 135582,
  "Ġpinch": 49246,
  "Ġpets": 25103,
  "Level": 4449,
  "çĳĸ": 123127,
  "Ġ>čĊ": 39206,
  "Tan": 76097,
  "ĠzarÃ³wn": 134237,
  "æľĹ": 100106,
  "GX": 84432,
  "ÙħØ²": 131609,
  "Ġcrawling": 71079,
  "ìĪµ": 150982,
  "epar": 11584,
  "tolua": 94681,
  "ĠyÄ±": 128034,
  "HasKey": 83633,
  "alach": 71384,
  "Ġ": 220,
  "ĠDataType": 33172,
  "Ġaccounting": 23168,
  "+\".": 41449,
  "çĥľ": 120488,
  "Ġstash": 64037,
  "ĠPert": 81784,
  "Ġencounters": 33906,
  "éħĥ": 122012,
  "_Resource": 86346,
  "CALL": 25427,
  "-inflammatory": 66495,
  "å·¥æľŁ": 113039,
  "Equip": 89908,
  "*u": 59121,
  "Ġrelaxed": 30367,
  "Ġ×ľ×ŀ×¢×©×Ķ": 135764,
  "dimension": 42539,
  "otoxic": 90576,
  "Ġrespectfully": 92345,
  "ĠConservation": 44335,
  "Ġfuturo": 64644,
  "ĠÑģÑĤÑĢÐ°Ñħ": 138033,
  "ĠCapacity": 40110,
  "Ð°Ð½Ð½Ñĭ": 27142,
  "Ġarranging": 76118,
  "(task": 17483,
  "ĠØ£ÙĨÙĳ": 133432,
  "Ġ×ĳ×Ĵ×Ļ×Ł": 138958,
  "ertext": 37220,
  "æķ«": 121241,
  "ablo": 31460,
  "éĥ¨ä¸»ä»»": 118222,
  "å±¥èģĮ": 110835,
  "æĴĦ": 121356,
  "ĉcol": 46640,
  "ïºİ": 140672,
  "arie": 66445,
  "ĠGÃ¶r": 132906,
  "æ¡ĥèĬ±": 107615,
  "å£°": 70074,
  "Ġrated": 21628,
  "-S": 6222,
  "ĠOttoman": 69010,
  "Ġdzi": 51026,
  "éĢĢ": 55806,
  "ĠMilitary": 26960,
  "áµŀ": 149599,
  "éĨĴäºĨ": 115836,
  "Ġplaybook": 86053,
  "Ġcord": 22324,
  "åįıè°ĥ": 102020,
  "ĠGETGLOBAL": 90854,
  "æ±¡æ³¥": 115890,
  "ĠkÃ¸benhavn": 44080,
  "LOOK": 94428,
  "èĢħãģĮ": 132639,
  "September": 29549,
  "éĢĿä¸ĸ": 115918,
  "æķĳæı´": 105868,
  "%\\": 69616,
  ".startDate": 62257,
  "Ð±Ð¸ÑĤ": 133532,
  "å¹´åºķ": 101375,
  "Ġshells": 42954,
  "èĿĺ": 123447,
  "ĠalÃ©m": 83669,
  "ä¸Ģé¡¿": 108148,
  ".der": 75819,
  "ĠCART": 78032,
  "çº³ç¨İ": 103311,
  "ä¾Ĩèĩª": 114107,
  "æµģæ°ĵ": 117855,
  "áº£": 21742,
  "Ġawareness": 17526,
  "like": 4803,
  "×§×ķ×ŀ": 134012,
  "ĠEXPER": 80081,
  "Ġ'''Ċ": 11166,
  "igh": 1090,
  "rupt": 6585,
  "ðŁĲķ": 146029,
  "_AGENT": 52499,
  "åºĸ": 119936,
  "wick": 21188,
  "<Role": 68427,
  "à¸Ĺà¸£à¸ĩ": 130463,
  "<Employee": 57965,
  "å®ŀçİ°äºĨ": 104415,
  "ĠåķĨ": 83310,
  ".LA": 80789,
  "ĠOracle": 21422,
  "ĠCollege": 9126,
  "\"},Ċ": 7115,
  "çĶ¨éĢĶ": 105795,
  "outers": 66095,
  "=['": 13987,
  "}}\">{{$": 90411,
  "Io": 42799,
  "Ġletto": 97899,
  "èĵĦ": 100979,
  "ĠSOME": 65555,
  "loads": 32685,
  "æĢ»èĢĮè¨Ģä¹ĭ": 117607,
  "æ®ī": 119374,
  "wik": 48437,
  "åľ°": 29490,
  "Ġprev": 7872,
  "ç´łæĻ´": 139660,
  "å²ģä»¥ä¸ĭ": 115465,
  "\";čĊčĊ": 21579,
  "Ġvague": 39046,
  "ãĤ¢ãĥ¡ãĥªãĤ«": 131966,
  "_answer": 28534,
  "\";čĊ": 3534,
  "Ġdaycare": 99154,
  "ĠWright": 26741,
  "Fourth": 88603,
  "ĠJAVA": 85560,
  "istic": 4532,
  "rends": 78617,
  "(mac": 73611,
  "po": 5368,
  "éĴĪå¯¹": 101092,
  "_NATIVE": 55575,
  "å·´åŁºæĸ¯åĿ¦": 113682,
  "Ġunemployment": 25608,
  "PopupMenu": 99071,
  ".beans": 14196,
  "ĠGh": 23908,
  "Ġparticipate": 15759,
  "igital": 10233,
  "Ġ~~": 77777,
  "æ³«": 119954,
  "ĠihtiyaÃ§": 134617,
  "Education": 39134,
  "æľīè¶£": 103027,
  "ahi": 51106,
  "-redux": 19604,
  "ĉdis": 34597,
  "åĶĳ": 120386,
  "å®Įç¾İ": 104448,
  "Ġshadow": 12455,
  "×¢×ª": 124498,
  "ĠgÃ©nÃ©": 45580,
  "ÑİÑīÐ¸Ð¼": 131391,
  "_te": 38678,
  "(use": 47362,
  ".usuario": 59270,
  "n": 77,
  "è´½": 120303,
  "è¿İåĲĪ": 116409,
  "polit": 90527,
  "ä¸įåľ¨": 102972,
  "Ġlast": 1537,
  "\\:": 65923,
  "ĠFashion": 30600,
  "ĠPAT": 44370,
  "ÙĤØ¶Ø§ÙĬØ§": 135618,
  "éŁ": 99374,
  "Ġemulate": 65485,
  "/Library": 59077,
  "UnitOfWork": 73263,
  "ICIENT": 89625,
  "ĠØ§ÙĦØ£Ø·ÙģØ§ÙĦ": 134668,
  "åħ±äº§åħļ": 105126,
  "vet": 17115,
  "ĠÑĦÐ¸Ð½": 135156,
  "à¦¿": 61356,
  "Ġerotische": 22210,
  "_holder": 50788,
  "è¥¿åįĹ": 105325,
  "Ġloses": 32191,
  "ESIS": 83366,
  "è¡Ĺ": 99913,
  "ĠEvil": 33719,
  "iá»ĩn": 133682,
  "opped": 17573,
  "ĠMsg": 24205,
  "YRO": 86836,
  "ĠFree": 3574,
  "Ġtáº¡m": 139511,
  "}\")": 55961,
  "anni": 42661,
  "ENTION": 71883,
  "ĠSemi": 54638,
  "Ġmajors": 55233,
  "è«ĸ": 100946,
  "Ġmailing": 32759,
  "\\\",\\": 65290,
  "HM": 52148,
  "è¿«ä½¿": 116854,
  "_DEN": 66936,
  "à¹Ĥà¸£à¸ĩà¸ŀà¸¢à¸²à¸ļà¸²à¸¥": 139256,
  ".textColor": 29960,
  "è¡Ĺéģĵ": 104079,
  "ðŁĴ¼": 146960,
  "á´Ĭ": 149595,
  "åºķå±Ĥ": 110413,
  "çģ¯": 100183,
  "ĠÎ½": 98686,
  "ĠÄĳ": 14854,
  "checkout": 33035,
  "sessionId": 70515,
  "á»§": 42504,
  "ãĥªãĥ³ãĤ°": 132158,
  "è¹ĳ": 121877,
  "approval": 54439,
  "ÄĤ": 133321,
  "ĠBott": 36230,
  "ponent": 1146,
  "-inf": 47236,
  "Ġanalysis": 6358,
  "åĵ¥ä¼¦æ¯Ķäºļ": 115020,
  "éĿĴæĺ¥æľŁ": 118623,
  "þ": 186,
  "è¿·æĥĳ": 117786,
  "Ġ×¦": 124393,
  "ĠNE": 7856,
  "æľ¨åľ°æĿ¿": 115612,
  "ND": 8065,
  "åĲĥå®Į": 109327,
  "(($": 33077,
  "ä¾¿æį·": 105499,
  "-dark": 21838,
  "Ral": 84981,
  "Ð¾ÑĢÑĤ": 125159,
  "à¸ļà¸±à¸Ļ": 125279,
  "áĨ±": 150477,
  "ÑĭÐµ": 50636,
  "çļĦæľºä¼ļ": 104571,
  "kest": 39323,
  "æĢĿç´¢": 111072,
  "×ŀ×Ĺ×¨": 138874,
  "Ġ×ł×©×ŀ×¢": 141278,
  "ÙħØ³ÙĦÙħ": 132405,
  "æĹ¥åĩĮæĻ¨": 112742,
  "ÃŃculos": 66011,
  "æĸ¹è¨Ģ": 114413,
  "×ª×ĸ": 141529,
  "Ġreels": 78500,
  "Charlie": 72628,
  "èĪªçº¿": 109743,
  "Ġnouveaux": 86225,
  "Third": 36975,
  "Ġunprotected": 93351,
  "Ġtackle": 21403,
  "Ġ[âĢ¦": 10205,
  "ĠIndicates": 44267,
  "Ġbroth": 44893,
  "favorite": 38490,
  "ĠMaxwell": 58397,
  "ãģĭ": 31049,
  "à¹Ģà¸ĭ": 124670,
  "ÑĪÐµÐ´": 141853,
  "]=(": 55073,
  "itere": 41846,
  "å¼Ĥåĳ³": 116027,
  "Ġdistraction": 53616,
  "#ifndef": 5528,
  ".gnu": 12178,
  "(contents": 46964,
  "dra": 22248,
  "pherical": 44745,
  "_UNIQUE": 90330,
  "ĠDow": 42432,
  "Ġfatty": 38985,
  "ĠCriteria": 14243,
  "_emails": 77773,
  "plate": 1750,
  "æĴŃæĶ¾": 105956,
  "Ġexcluding": 43778,
  "()]ĊĊ": 92108,
  "trÃ¤": 140463,
  "ðŁļĹ": 145494,
  "Ġgenuine": 22011,
  ".zip": 20991,
  "å½ĸ": 122559,
  "oshi": 31845,
  "HashMap": 18497,
  "rog": 11918,
  "/order": 43395,
  "Ġrepeating": 39816,
  ".Zero": 35489,
  "Ġreservation": 27667,
  "Dept": 67366,
  "Ġtooltips": 91234,
  "ĠGOOGLE": 90216,
  "Ġreligion": 13587,
  "ĠÐ»": 25460,
  "Ġwife": 7403,
  "è½¶": 120091,
  "áº¡t": 124646,
  "Thumbnail": 45970,
  "ä¸ļä¸»": 104348,
  "ĠØ§ÙĦÙħÙĪØ¶ÙĪØ¹": 130989,
  "gm": 26186,
  "å¸¸åĬ¡åī¯": 109295,
  "ĠNH": 34831,
  "{:": 44986,
  "ĠØ¨Ø§ÙĦØ£": 134964,
  "-thinking": 98951,
  "ĠACM": 89215,
  "Ġcháº¡m": 141619,
  "Ġ*/}Ċ": 21654,
  "ĠcoÅĽ": 130743,
  "hci": 73810,
  "ðŁı¿": 146530,
  "Ġ($(": 39137,
  "Ġmerit": 37459,
  "æĳĩäºĨ": 115283,
  "Ġbiking": 66080,
  "æ¡ĪåŃĲ": 116937,
  "èĭ±åĭĩ": 114306,
  "Ð¸ÑĢÐ¾Ð²": 58821,
  "ëºį": 147945,
  "rf": 8052,
  ")index": 77383,
  "×ĳ×Ł": 129873,
  ".pop": 8288,
  "unu": 62253,
  "Demand": 81027,
  ".Integer": 19852,
  "åĳ³éģĵ": 102580,
  "LOT": 15745,
  "âĺ±": 149052,
  "Ġproj": 21333,
  "ĠMagn": 20300,
  "ïŃ¨": 151169,
  "Ġprevention": 26248,
  "_PRIORITY": 42694,
  "è¹ľ": 123679,
  "×¨×§×¢": 137799,
  "woff": 68585,
  "çŁ": 99183,
  "ĠYE": 76948,
  "èįī": 99808,
  "Ġenter": 3725,
  "mic": 21220,
  "ØªØ¹ÙĦÙĤ": 127915,
  "Ġnot": 537,
  "å¹´äºº": 101506,
  "é¦": 44965,
  "ifers": 98813,
  "Envelope": 62712,
  "-standing": 55603,
  "Ġinitiatives": 27172,
  "Ġcolorful": 33866,
  "ÅĽwi": 125706,
  "çĥŃè¡Ģä¼łå¥ĩ": 112310,
  "ĠauprÃ¨s": 138807,
  "åĨįä¹Łæ²¡æľī": 117392,
  "è°Īè®º": 112225,
  "åįķåħĥ": 106251,
  "avr": 69584,
  "ç¶ļ": 124468,
  "æĹ¶è¾°": 114491,
  "çŃĽéĢī": 108732,
  "ĠclearInterval": 45585,
  "textInput": 66997,
  "rac": 19959,
  "ga": 6743,
  ".GetSize": 87472,
  "ÙħØ±Ø©": 133276,
  "Ġgrub": 73706,
  "_POWER": 33304,
  "ultip": 9845,
  "-\"": 27651,
  "waiting": 49534,
  "å°ıå§Ĳå§Ĳ": 117253,
  "ĠaÅŁ": 125409,
  "Ġniveau": 51952,
  ".tile": 29934,
  "ĠxÃ¡c": 129207,
  "har": 12982,
  "ĠphÃ©": 130223,
  "(para": 97403,
  "ï½½": 144216,
  "Ġmáº½": 137125,
  "Popular": 58452,
  "æĺ¯ä¸Ģ": 99639,
  "Ġ################": 37615,
  "Ġsá»Ľm": 131969,
  "áĬ¢": 148793,
  "Ġwidow": 56796,
  "Ġíķĺì§Ģë§Į": 130331,
  "ĠÑģÐ²Ð¾": 124460,
  "Ġêµ¬": 58777,
  "(timer": 42892,
  "åĪĩåħ¥": 103823,
  ".setMinimum": 84736,
  "Ġplt": 6516,
  "ellidos": 50128,
  "äºĭãģĮ": 132659,
  "áº¢": 126884,
  "/public": 22041,
  "ĠsignUp": 71030,
  "');čĊčĊ": 25447,
  "_Internal": 37238,
  "DISABLE": 81148,
  "Ġblasted": 62321,
  "HEN": 87921,
  ",res": 24120,
  "Ø§ÙĩØªÙħØ§Ùħ": 134612,
  "Ġfunky": 73888,
  "Ġlegion": 94168,
  "Ġmemo": 21438,
  "github": 5204,
  "=$_": 17237,
  "Ġvaries": 34227,
  "ÑĩÐ°ÑģÑĤ": 125537,
  "Ġretrieved": 30403,
  ".NULL": 90312,
  "Ġmajestic": 80289,
  "ĠCornwall": 75950,
  ".ElementAt": 68217,
  "Ġconglomer": 87651,
  "çĸ°": 122683,
  "Languages": 59286,
  "×ĳ×ĵ×Ļ×§×Ķ": 139369,
  "alculate": 45441,
  "/C": 11295,
  ".Lines": 90995,
  "ÙħØ³Ø£ÙĦ": 139681,
  "Ġbrazil": 96646,
  "ĠThick": 81277,
  "éĦħ": 122845,
  "Ġcontrols": 11574,
  "ä¿¡æģ¯æľįåĬ¡": 110042,
  "å±ħå§Ķä¼ļ": 118490,
  "èĩ³åħ³éĩįè¦ģ": 107940,
  "Fort": 33280,
  "Ġplainly": 64295,
  "ĠMans": 43135,
  "_PAGE": 19971,
  "ðĿĻľ": 151506,
  "ð¬ĺ¡": 122555,
  "èĩ¼": 119307,
  "ëĥ¨": 149434,
  "Ġtolerated": 65341,
  "_picture": 42406,
  "ĠnovitÃł": 143145,
  "irth": 4809,
  "ĠOSError": 74242,
  "ĠÄĳá»Ŀi": 129169,
  "à¸ŀà¸´à¸¡": 132274,
  "Ġanimation": 10355,
  "æŃ¡": 101661,
  "basePath": 79163,
  "Ġpinpoint": 66538,
  "×ª×ŀ": 130873,
  "aldi": 76916,
  "Ġdevastation": 81915,
  "(right": 27704,
  "Ġsui": 83653,
  "Ġmpi": 58122,
  "Ġportfolios": 75708,
  "åŃ¢": 119044,
  "ĠWooden": 62492,
  "åĪ¤å¤Ħ": 112217,
  "çļĦå®īåħ¨": 106552,
  "Ġcrazy": 14264,
  "Drug": 77793,
  "lund": 84733,
  "ðŁĸ¼": 148396,
  "attach": 16330,
  "Ġbanned": 20834,
  "ï®±": 149132,
  "ĠpolÃŃtico": 132168,
  "åĲįäºº": 107915,
  "á¼Ŀ": 150005,
  "gerald": 56797,
  "äº§ä¸ļéĽĨèģļ": 117260,
  "è¿Ļæĺ¯ä¸Ģä¸ª": 105464,
  ">\"": 9877,
  "ĠBlackjack": 87092,
  "())))Ċ": 60131,
  "(file": 4866,
  "âºŁ": 151641,
  "ãŁ¢": 149372,
  "(Frame": 91008,
  "ĠTracy": 59242,
  "à¸Ĺà¸µà¹Īà¸ķà¹īà¸Ńà¸ĩà¸ģà¸²à¸£": 138406,
  ")..": 88512,
  "ĠDifficulty": 54946,
  "æĪĳè®¤ä¸º": 106090,
  "×Ļ×¨×ķ": 131142,
  "riterion": 12334,
  "ĠCÃ¹ng": 139602,
  "Ġpeptide": 71149,
  "æĿĳæ°ĳ": 101248,
  "Ð°Ñģ": 17953,
  "Ġ_.": 13194,
  "ENTICATION": 92616,
  "ĠGeschÃ¤": 137193,
  "æ®µæĹ¶éĹ´": 101430,
  "berries": 35889,
  "edef": 4219,
  "ĠRK": 67137,
  "ITTLE": 60109,
  "æĹłåģ¿": 114887,
  "åĵĦ": 108676,
  "ĠMustang": 52779,
  "æģĻ": 120486,
  "mathrm": 91550,
  "Manager": 2043,
  "âİľ": 148605,
  "Ġ×¨×ķ×Ĳ×Ķ": 136409,
  "çıŃåŃĲæĪĲåĳĺ": 107332,
  "Cont": 818,
  "ĠÑĦÐ°Ð¹Ð»": 46318,
  "ees": 5516,
  "-type": 10604,
  "å®¶éķ·": 110173,
  "Ġinfinit": 81126,
  "urs": 1723,
  "íİ¶": 151084,
  "Ġdistribute": 16417,
  "<nav": 54067,
  "ogg": 16108,
  ".setStroke": 92289,
  "âº«": 150748,
  "RequestBody": 33334,
  "×¨×Ľ×Ļ×ĳ": 134266,
  "æĭ¨": 102561,
  "_MACRO": 73361,
  "ï¼º": 144558,
  "ĠKathy": 64198,
  "ä¸īåĨľ": 113091,
  "ĠChecklist": 94969,
  "Ġ//////////": 93155,
  "ldre": 63196,
  "mere": 59931,
  "_expand": 67875,
  "::$": 10002,
  "ive": 533,
  "Ġdemise": 57864,
  "Ġhope": 3900,
  "lok": 60931,
  "×ŀ×ł×Ķ×ľ": 129669,
  "Ġnue": 11854,
  "_slide": 61833,
  "ĉĉĉĉčĊ": 19676,
  "Tower": 95824,
  "éĦĹ": 123071,
  "èĨĢ": 101743,
  "æĺİçĻ½äºĨ": 108449,
  "æ³ķæ²»": 105000,
  "Ġinvis": 99037,
  "Mo": 25612,
  "Ġfandom": 74325,
  "(Group": 79535,
  "Ġfactura": 99045,
  "åı¬åĽŀ": 114038,
  "æĺ¥é£İ": 110067,
  "å·¥ä½ľä¸Ń": 105280,
  "ç¸½æĺ¯": 114555,
  "à¹Ģà¸ķà¸´à¸¡": 126999,
  "çĶ»åį·": 117464,
  "Meeting": 64576,
  "enzyme": 64628,
  "ĠTrojan": 95515,
  "Audit": 74516,
  "Ġsponsors": 38601,
  "GetString": 48905,
  "Ġheg": 89403,
  "Ġanale": 78237,
  "ĠstartPoint": 82429,
  "ä¸§": 101593,
  "åįıåķĨ": 105493,
  "daq": 73207,
  "Ġcured": 63588,
  "Ġmutable": 25804,
  "Ġprimes": 49433,
  "Ġnoses": 96714,
  "èĩªä¸»": 100842,
  "SelectedItem": 75899,
  "lÃ¨ve": 137379,
  "andbox": 31536,
  "fsp": 92113,
  "ĠDarren": 56990,
  "×¢×©×Ļ": 140960,
  "äº¤æ±ĩ": 113692,
  "ðŁı¬": 147490,
  "ĠGir": 46935,
  "ç¨İåĬ¡æĢ»å±Ģ": 117424,
  "Ġcalm": 19300,
  "ì±Ĺ": 145638,
  "uing": 7471,
  "Ġprograms": 7468,
  "ĠìĿ¸ìłķ": 139180,
  "ÙĤØ§ØªÙĦ": 137579,
  "á¼¡": 146217,
  "porte": 44708,
  "à¤": 5502,
  "ĠSubjects": 64718,
  "Ġfundra": 26318,
  "_pop": 17061,
  "ÑįÐºÐ¾Ð½Ð¾Ð¼": 131932,
  "ðŁįİ": 145877,
  "ç¦»": 99372,
  "éĹ´éļĻ": 115301,
  "âīĭ": 150649,
  "åĪ¤åĨ³": 106530,
  "âĪĹ": 145228,
  ">B": 36721,
  "bstract": 48494,
  "/List": 76397,
  "éĤĵ": 102473,
  "uppe": 58498,
  "ĠÐ¸ÑģÑĤ": 126144,
  "ĠCobb": 67905,
  "ãĥĩãĥ¼ãĤ¿": 131552,
  "æ·¡åĮĸ": 117195,
  "ĠÙĪØ²": 126857,
  "æŁĶ": 100502,
  "çĽĳæĬ¤": 111853,
  "Ġ×ľ×ĳ×ĵ": 128007,
  "ĠhÄ±z": 127597,
  "ARED": 32673,
  ".easing": 90379,
  "/display": 73329,
  "ĠcontentValues": 81418,
  "Ġdried": 31620,
  "wÃ¤": 129059,
  "-notch": 77511,
  ".Bool": 52497,
  "aes": 76584,
  "åıĭæĥħ": 103471,
  "(shader": 54597,
  "Ġ×Ķ×Ķ×ª": 133417,
  "Monster": 50751,
  "ĠRencontres": 93373,
  "Ġkotlin": 21527,
  "åħ³éĶ®åŃĹ": 118294,
  "Ġmayor": 16923,
  "Updater": 79854,
  "Practice": 88492,
  "unsubscribe": 90423,
  "ĠhistÃ³ria": 93209,
  "ucha": 54381,
  "Ġdivisible": 74916,
  "Ġframework": 12626,
  "Ġremnants": 72340,
  "ä¼ĬåĪ©": 118327,
  "ĠØªØ±ÙĬØ¯": 138169,
  "(ierr": 61633,
  "ĠÐ½Ð°Ð¸Ð±Ð¾Ð»ÐµÐµ": 135806,
  "Ġlobster": 79715,
  "Rail": 94050,
  "\\Session": 69608,
  "licted": 41343,
  "Ġhas": 702,
  "é»ĳçĻ½": 111877,
  "Ġought": 21776,
  "Ġlogistics": 42157,
  "Ġdesignate": 74124,
  "É¯": 147444,
  "Ġmanos": 96249,
  "Ġfra": 6677,
  "cran": 71985,
  "èĥĮæĻ¯ä¸ĭ": 106206,
  "ĠPi": 20636,
  "×Ļ×ķ×ª×¨": 126290,
  "Ġphoto": 6548,
  "-title": 8816,
  "oran": 54404,
  "æ¸©æĥħ": 118265,
  "Comp": 13552,
  "å®¶éĩĮ": 102078,
  "_LOGIN": 38314,
  "Ġmodulo": 59864,
  "ÑģÑĤÐ°ÑĤ": 130975,
  "é²¿": 123643,
  "ĠbeÄŁ": 139264,
  ".endpoint": 60972,
  "Ġ{?": 49376,
  "_minus": 38457,
  "(window": 15906,
  "Exception": 1354,
  "Ġdeaths": 16375,
  "ä¸Ģçľĭ": 102668,
  "Ġ×Ĳ×Ĺ×¨×Ļ": 128709,
  "ïº¿": 145311,
  "win": 7526,
  "auer": 27097,
  "Bound": 19568,
  "Ġdistances": 26552,
  "ĠlÃŃnea": 55162,
  "âŁ±": 147632,
  "ĠØ§ÙĦÙģÙĪØ±ÙĥØ³": 131640,
  "ä½ľåĿĬ": 115631,
  "iÄŁi": 127625,
  "ĠBaths": 74442,
  "åĩºåľº": 108488,
  "â¦ģ": 145109,
  "ĠHo": 17275,
  "?,Ċ": 36474,
  "anders": 83951,
  "Ġemergencies": 67974,
  "Padding": 21616,
  "_stream": 12673,
  "æ³º": 119952,
  "åĽ¢éĺŁ": 103932,
  "ĉresolve": 87778,
  "ĠprevState": 74946,
  "Ġeconomics": 27889,
  "æĪĲäºĨ": 100215,
  "ĠglEnd": 91055,
  "_Max": 58843,
  "Ġsimplicity": 38975,
  "Leader": 52621,
  "à¹ĩà¸Ļ": 123909,
  "Ġany": 894,
  "åĲĦçľģ": 112108,
  "Ġbullying": 44547,
  "<double": 9869,
  "Ġdomination": 54849,
  "ĠFreeman": 49564,
  "raries": 14876,
  "ology": 2449,
  "Ġoutf": 75881,
  "æĲĭ": 121110,
  "ĠTween": 66335,
  "mania": 51568,
  "install": 12248,
  "ê¦Ĺ": 149330,
  "culos": 78034,
  "ĠManuals": 58841,
  "Ġreinforcing": 90015,
  "Ġzobac": 141611,
  "à¸ŀà¸´à¸©": 141623,
  "ilies": 7597,
  "Ġepile": 57552,
  "æ±¤": 102022,
  "Ñ½": 146533,
  "ĠRunner": 44946,
  "Ġenclosure": 57812,
  "_datasets": 81325,
  "ï»º": 147459,
  "_positive": 54160,
  "Ġexplanatory": 92466,
  "ĠWedding": 30817,
  "ë´Ħ": 144271,
  "_ts": 25023,
  "åĲĮæĥħ": 112321,
  "æ±Łå±±": 112462,
  "ðŁħ¦": 151374,
  "emoji": 37523,
  "Ġtrucks": 26763,
  "Ġíģ°": 132182,
  ".general": 55790,
  "Ùħ": 10176,
  "ĠØ¨ÙĬÙĨÙħØ§": 134939,
  "Ġdrastic": 59783,
  "äºĭä¸ļåįķä½į": 105627,
  "åį£": 119692,
  "æľ¬ç½ĳç«Ļ": 106629,
  "Ġwm": 51634,
  "ĠIh": 19051,
  "ãģ»ãģ©": 128615,
  "ĉmat": 59874,
  "ĠsoluÃ§Ã£o": 143396,
  "çĽ¸åħ³è´Łè´£": 109952,
  "Ġoutsourcing": 74692,
  "(Content": 79352,
  "çĥŃçĥĪ": 107073,
  "à¸Łà¸¸à¸ķà¸ļà¸Ńà¸¥": 131956,
  "ĉback": 77446,
  "ĠfindAll": 42785,
  "ĠCONST": 29602,
  "ĠLoved": 84027,
  "èĤĿ": 101364,
  "ĠLuna": 49805,
  "Ã¤d": 30875,
  "ĠendIndex": 61103,
  "Ġ×ŀ×Ĺ×¤×©": 135604,
  ".calls": 60023,
  "()].": 57590,
  "íĥ¤": 145525,
  ".detach": 60386,
  "Ġrecru": 12117,
  "(plugin": 46801,
  "ê´Į": 145979,
  "ĠSocialist": 56110,
  "Ġverifying": 68863,
  "nÃ§": 131164,
  "Ġpermissions": 8541,
  "ĠTOOL": 92813,
  "slaught": 77068,
  "Ġrecv": 27006,
  "Joined": 41373,
  "ÐĹÐ°": 134641,
  "olland": 42332,
  "elling": 6293,
  "(ticket": 81439,
  "ĠPolly": 93417,
  "Ġczy": 35950,
  "endants": 28310,
  "ĠBound": 37176,
  "such": 20805,
  "Ġtren": 73600,
  "ä½İäºİ": 102617,
  "mÃ©d": 130054,
  "ĠHelmet": 66529,
  "çļĦåĦ¿åŃĲ": 108621,
  "Ġobra": 61734,
  ",width": 41611,
  "Ġcontours": 49031,
  "åŃµ": 101671,
  "ĠSatisfaction": 93857,
  "ALLED": 77240,
  "reffen": 64260,
  "Associ": 29815,
  "_commands": 44151,
  ".object": 6035,
  "ring": 12640,
  "Ġtally": 52295,
  "Ġregulator": 39604,
  "ëĿ¤": 145255,
  "Ġexporters": 74848,
  "è¯·æ±Ĥ": 34859,
  "Is": 3872,
  "Ġpork": 35067,
  "ðŁĺĶ": 145379,
  "Kansas": 93863,
  "ouis": 47990,
  "_SUFFIX": 63825,
  "Ġ×ĳ×¢×ķ×ľ×Ŀ": 129973,
  "aghetti": 63965,
  "(fil": 87861,
  "æľīä¸ĢäºĽ": 101529,
  "å¤§æķ°æį®": 104315,
  "pressor": 56220,
  "é»ĳ": 56652,
  "é¥±åĴĮ": 112726,
  "[w": 39184,
  "Faculty": 94667,
  "ìĿ¸ìĿ´": 135227,
  "ëĿ¼ëĬĶ": 129615,
  "åı£æľį": 113492,
  "Ġtranslate": 14683,
  "Ġê¹": 130507,
  "%x": 25916,
  "èĢģåŃĹåı·": 116576,
  "referer": 88963,
  "_examples": 45279,
  "Ø±Ùı": 134795,
  "Sab": 76378,
  "Ð³ÑĢÑĥÐ·": 131215,
  ".extract": 37358,
  "Indexes": 62229,
  "ãĤĪãģĦ": 133521,
  "qi": 40187,
  "ĠOpenSSL": 65617,
  "ied": 1122,
  "ë©§": 145173,
  "Ġrisen": 40382,
  "åŃĲå¼Ł": 116167,
  "ê¿Ģ": 144447,
  "=wx": 90712,
  "éĿ¢çĽ®": 114079,
  "Ġworkers": 7337,
  "çļĦè¯´æ³ķ": 108284,
  "Visualization": 69036,
  "ä¸įåĲĮç±»åŀĭ": 118700,
  "wyn": 53656,
  "Ġrevolutionary": 29091,
  "ĠAIR": 45894,
  "ð¤§": 123131,
  "ØµÙĬØ§ÙĨØ©": 143713,
  "é¾Ł": 108329,
  "Ġwallets": 53308,
  "åŃ©åŃĲçļĦ": 104661,
  "(back": 58092,
  "Ġkarma": 70442,
  "idenav": 49263,
  "Ġchimpan": 98325,
  "Ġ\"../../../": 30630,
  "ç¤¾ä¼ļ": 99328,
  "ĠÑĥÐ½Ð¸ÐºÐ°Ð»ÑĮÐ½": 140512,
  "Ġlandlords": 63629,
  "ç»ıæµİ": 99346,
  "\\Model": 8594,
  "ĠCousins": 77604,
  "ĠÄĳÆ¡n": 128666,
  "ï²¤": 147429,
  ".profile": 21507,
  "ĉdriver": 33652,
  "<Category": 54731,
  "å·²æĺ¯": 108222,
  "çĭ¬ä¸ĢæĹł": 115022,
  "UTDOWN": 79702,
  "rans": 33389,
  "ifstream": 49497,
  "ĠÄĲá»©c": 129938,
  "<N": 29198,
  "ê³µ": 78125,
  "Ġrelatives": 28558,
  "ĠUIImage": 20681,
  "ðŁĲ¿": 148168,
  "ëĦĭ": 145588,
  "Ġsortable": 56775,
  "ĠÐ¿Ð¾Ð±ÐµÐ´": 138022,
  "rea": 5213,
  "ILITY": 5032,
  "åĪĺéĤ¦": 118470,
  "ãİĲ": 149074,
  "_label": 6106,
  "åĨķ": 116706,
  "ãģ®ãģ§": 124378,
  "ĠSHIFT": 82503,
  "×Ĺ×ĵ×©": 125886,
  "ÐµÐ½ÐºÐ¾": 134496,
  "ĠCÃ¢mara": 138956,
  "Ã¡z": 59821,
  "ella": 6842,
  "HttpResponse": 43342,
  "lsen": 59988,
  "ħ§": 91771,
  "_PAGES": 79873,
  "âĬ¢": 147753,
  "ĠGraphQL": 35087,
  "ãģĹãĤĥ": 127949,
  "-cont": 34072,
  ".root": 12576,
  "Ġbmp": 43301,
  "åĪ©æ¶¦çİĩ": 118409,
  "ĠOc": 82452,
  "ĠSetUp": 92101,
  "-components": 24594,
  "ï¿Ĥ": 151245,
  "çĶ±ä¸ŃåĽ½": 110461,
  "producer": 58912,
  "ĠĉĠĠĠ": 79524,
  "äºīè®º": 113350,
  "amerate": 76966,
  "Participants": 77546,
  "à´Ļ": 148415,
  "ĠModal": 21311,
  "Ġmg": 13742,
  "¶ļ": 89083,
  "idges": 29163,
  "Ġdistingu": 18975,
  "ÑĮÐµÐ²": 136263,
  "_CS": 34796,
  "åĤ¥": 120988,
  "\").": 1827,
  "element": 6101,
  "EEDED": 85431,
  "ĠGl": 8280,
  "give": 46430,
  "å®ªæ³ķ": 109210,
  "ĠCastro": 46524,
  "Ġfiled": 12729,
  "Ġconexao": 97877,
  "ç¿©": 119496,
  "ĠRelease": 17381,
  ".instagram": 56827,
  "ĠWeather": 22629,
  "ä¸»æĴŃ": 107206,
  "Missing": 25080,
  "xB": 14377,
  "Ġrecurrent": 64074,
  "Robin": 76671,
  "roken": 81709,
  "colon": 76824,
  "Gas": 58728,
  "Ø®Ø±ÙĪ": 135615,
  "Ġmoll": 54409,
  "Ġdependency": 24036,
  "ãģ«ãģªãĤĬãģ¾ãģĹãģŁ": 127357,
  "ĠKlo": 73641,
  "Phoenix": 78825,
  "æł¾": 119282,
  "Ġlap": 23410,
  "åĮį": 120186,
  "lsx": 29017,
  "saved": 32702,
  "Ġins": 1640,
  "\";}": 75091,
  "ervised": 77990,
  "-peer": 78597,
  "Ġarm": 6773,
  ".getID": 67694,
  "asurable": 55812,
  "é«ĺå°ļ": 113904,
  "_SEP": 92052,
  ".Down": 73543,
  ".ST": 15635,
  "åħĪéĶĭ": 107310,
  "Ġ-*-čĊ": 82294,
  "Ġsignatures": 32628,
  "ĠÄĳá»ĳi": 128421,
  "ĠìĦ¸ê³Ħ": 133196,
  "â¾µ": 150142,
  "czÄĻ": 125846,
  "ĠCookies": 25994,
  "çĦĮ": 122880,
  "Redirect": 17725,
  "ìºī": 145521,
  "Ġnowadays": 45777,
  "ÙĪÙĩ": 129094,
  "ĠØµØŃÙĬØŃ": 136826,
  "èŁ¾": 122027,
  "æĬ¥èĢĥ": 106051,
  "ĠLegislature": 46026,
  "Ġcables": 36072,
  "âĢ¾": 146418,
  "nodeName": 93451,
  "å¤įåĲĪ": 105840,
  "ĠRGB": 20978,
  "ĠÐ²ÐµÑīÐµÑģÑĤÐ²": 136789,
  "ĠYoga": 37573,
  "âĶ¯": 146703,
  "ĠpÃ¡": 64745,
  "ĉplt": 49949,
  "ÙĤØ±Ø§Ø±": 129305,
  "åĩŃ": 100284,
  "ĠCruc": 75004,
  "ç½½": 121887,
  "Ġpenetrated": 96822,
  "ĠØ£ÙĤÙĦ": 135761,
  "folders": 67355,
  "èĵ¬": 101761,
  "ĠHamburg": 50462,
  "åĩºè·¯": 113212,
  "Ġë°ı": 128355,
  "Ġglance": 33422,
  "Ġbeams": 49945,
  "ĠØ§ÙĦØ®Ø§ÙħØ³": 139307,
  "åı¯ä»¥æł¹æį®": 112184,
  "Ġfavored": 45503,
  "ÐłÐĲ": 134050,
  "ï¯£": 149136,
  "ĠIND": 19317,
  "ĠNz": 98692,
  "_SPEC": 36436,
  "agar": 37712,
  "æ·±åĬłå·¥": 113388,
  "yeah": 75415,
  "æĭĵå±ķ": 104206,
  "samples": 41118,
  "×ķ×Ľ×Ķ": 132118,
  "Ġverification": 22901,
  "Ġcooperation": 23046,
  "ĠÑĤÐ°ÐºÐ¾Ð¹": 131392,
  "_formatter": 73965,
  "çļĦå¼ºå¤§": 110087,
  "_genes": 83472,
  "Ġza": 14694,
  ".forward": 26515,
  "Ġdatingsider": 84865,
  ".\"": 1189,
  "anga": 19372,
  ".encoding": 65118,
  "Ø¹ÙĤÙĦ": 133543,
  "ĉFunction": 87522,
  "Ġpaint": 6177,
  "/web": 21808,
  "Ġinfluencing": 65600,
  "vals": 25596,
  "AtPath": 86422,
  "Timeout": 7636,
  "æĬĹèıĮ": 118561,
  "Ġ----------": 43789,
  "ĠSaÄŁlÄ±k": 136374,
  "Ġsob": 11493,
  "é¦ĸè½®": 117917,
  "ĠÑĢÐ°Ð±Ð¾ÑĤÐ°": 129897,
  "ĠDawn": 34507,
  "ĠgÃ¼nÃ¼": 131214,
  "Ġliter": 6935,
  "áłĨ": 150553,
  "$L": 89891,
  "Ġhammered": 92024,
  "essen": 38809,
  "fce": 97614,
  "èī": 33352,
  "ĠChatt": 78213,
  ";\\Ċ": 55783,
  "ç§ĳåĪĽ": 103406,
  "ä¿¡åı·": 104757,
  "åŃĲ": 44729,
  "_transactions": 68182,
  "Ġ'@": 3458,
  "oppel": 66522,
  "innamon": 39335,
  "Ġsubmodule": 95570,
  "plit": 2292,
  "Uploaded": 62061,
  "Ġidiots": 79033,
  "à¸Ķà¹ī": 123952,
  "(state": 8390,
  "\"net": 32468,
  "rosis": 62312,
  "GE": 10777,
  "ĠÐ´Ð¾": 56197,
  "ĠDemocracy": 47089,
  "Ġê´Ģìĭ¬": 138449,
  "â»ģ": 148836,
  "ĠKun": 42783,
  "Ġstrange": 14888,
  "ĠØ¥ÙĦÙĬÙĩ": 132674,
  "æĮĸæİĺæľº": 116628,
  "Ġquestion": 3405,
  "Ġliking": 48737,
  "Ġnumerator": 63533,
  "å¾Ħ": 66569,
  "Ġquasi": 47744,
  "ĠPast": 23640,
  "_wheel": 82012,
  "Ġwithheld": 76003,
  "Ġmachen": 37896,
  "ðĿĸİ": 147247,
  ".Please": 81827,
  "ĠitemName": 66009,
  "ĠColum": 13901,
  "JSONObject": 23596,
  "_EMIT": 97763,
  "Ø³Ø¨Ø¨": 125766,
  "ĠKeep": 13655,
  "Ġslight": 8112,
  "ðĿĻ»": 151354,
  "].": 936,
  "oun": 1624,
  "åłĮ": 122755,
  "èµ·åĪ°": 104944,
  "Two": 11613,
  "ĠÐ¿ÑĢÐ°Ð²Ð¸Ð»Ð¾": 139577,
  "ØµØ·": 136264,
  "è¨Ģè¯Ń": 109719,
  "ĠLinearLayoutManager": 45851,
  "à´¨": 148199,
  ".OrderBy": 43040,
  "Ġstepped": 24326,
  "Contract": 14067,
  "Ġterrain": 24869,
  ":auto": 57764,
  "Ġlaunder": 53038,
  ".liferay": 36701,
  "ìŀĹ": 148924,
  "æĦıè¯Ĩ": 100708,
  "Ġtimeout": 9632,
  "Ġavailability": 18048,
  "ĠIllustr": 38054,
  "(Handle": 90832,
  "åĽłä¸ºä»ĸä»¬": 109449,
  "ĠmÃ©dec": 139593,
  "obook": 73328,
  "éķ¿æķĪæľºåĪ¶": 109342,
  "Ġfees": 12436,
  "'ai": 33055,
  "ĺ": 246,
  "è°": 37913,
  "ä¸ļçķĮ": 106459,
  "æªĢ": 112511,
  "èĺħ": 122009,
  "Ġ×Ķ×ĸ×ķ×Ĵ": 137897,
  "Ġcommence": 55345,
  "_fecha": 72517,
  "(expected": 15253,
  "(Category": 58081,
  "âĨ¹": 150638,
  "Ġcinema": 33192,
  ".Print": 7918,
  "ecast": 91438,
  "ÅŁa": 129008,
  "éĤ¹": 108686,
  ".schedulers": 85549,
  ".func": 19449,
  "Ø§ØªÙģ": 125350,
  "ðŁĵ·": 145286,
  "(tableView": 68776,
  "åĮĸè¿Ľç¨ĭ": 116789,
  "uggling": 61931,
  "blick": 83820,
  "ï±ħ": 149856,
  "ĠNgoáº¡i": 142769,
  "Ġallerg": 24401,
  "ãĤĭãģ®ãģ§": 133608,
  "Ġurges": 62837,
  "Ġ\"),": 59312,
  "Ġthuyá»ģn": 143897,
  "Ġhelpful": 10950,
  "_estimator": 91968,
  "(xs": 53322,
  "åľºåĿĩ": 116709,
  "çī¹æľĹæĻ®": 105142,
  "ãĤ³ãĥ¼ãĥĴ": 142259,
  "UIImagePickerController": 98196,
  "itant": 50944,
  "çĶľç¾İ": 114401,
  "-establish": 47487,
  "At": 1655,
  "Ġdog": 5562,
  "modelo": 78451,
  "ĠÐ²ÑĭÑĢÐ°Ð¶": 143587,
  "ĠpInfo": 93583,
  "ĠUpon": 29438,
  "è¿½éĹ®": 117976,
  "ocode": 43688,
  "ðĿĲŀ": 145965,
  "âľ¤": 145303,
  "Ġ});ĊĊĊ": 27311,
  "%p": 97472,
  "AMP": 16024,
  "åħ¬å®ī": 100114,
  ".function": 20086,
  "è¯´åĩº": 108551,
  "æľĢä½İ": 104549,
  "_linear": 40674,
  "ĠCowboys": 40305,
  "etics": 24279,
  ".Images": 47188,
  "Ġimagin": 42206,
  "à¸§à¸¢": 124206,
  "ðŁı¸": 148897,
  "Ø§ÙĦ": 31382,
  "Ġcabin": 13386,
  "ðŁĽĴ": 146158,
  "._ĊĊ": 34773,
  "åŁİéķĩåĮĸ": 112861,
  "ĠLiability": 90043,
  "ĠAUD": 57580,
  "Ġjackpot": 68328,
  "ÙħØ¹Ø§ÙħÙĦ": 143019,
  "ENTER": 12847,
  "ĠAbsolute": 48881,
  "ĠØ³ÙĨØ©": 130643,
  "à¹Ĥà¸Ł": 127989,
  "×ŀ×Ĺ×ľ": 142694,
  "Ø´ÙĩØ¯": 129685,
  "_edit": 13156,
  "Ġadaptor": 91941,
  "Ġplaint": 23372,
  "Ġburied": 26918,
  "_specs": 71200,
  "ĠBryan": 36353,
  ".location": 8219,
  "Ø³ÙĩÙĦ": 134077,
  "ä¿Ŀé©¾æĬ¤èĪª": 116430,
  "Ð»ÑıÐµÐ¼": 66668,
  "ĠKernel": 36603,
  "ĠMonroe": 49787,
  "Ø§ØŃØ©": 129215,
  "Ð¿Ð¾Ð»": 125648,
  "ãĳĬ": 122332,
  "íİ¸": 129027,
  "ĠInspir": 88857,
  "ðŁļ¨": 146040,
  "Ġasteroids": 84222,
  "Ġpiss": 39940,
  "çŁ¥åĲįåĵģçīĮ": 113622,
  "éºĳ": 123729,
  "ĠStringIO": 66935,
  ".toolbox": 88265,
  "ĠÙĤÙİØ§ÙĦÙİ": 142087,
  ".gui": 29329,
  "Uniform": 20152,
  "ó": 175,
  "ĠRiders": 86070,
  "correct": 19928,
  "ĠÐĲÐ²ÑĤÐ¾ÑĢ": 138308,
  "using": 970,
  "çļĩåŃĲ": 117827,
  "ermen": 59158,
  "Ġuranus": 95228,
  "Target": 6397,
  "ĠPlayStation": 31265,
  "á": 157,
  ".sales": 73270,
  "Theory": 63099,
  "Ġprogramas": 93839,
  "-East": 93664,
  "ĉĉĠ": 7847,
  "Ġgrupos": 72924,
  "ðŁĵĪ": 146763,
  "æ»¡æ»¡": 103444,
  ".source": 14698,
  "=\"'.": 37317,
  "Ġexcitement": 27262,
  "sass": 60326,
  "ëĬ": 15127,
  "æĢĿãģĦ": 126623,
  "Ġoperations": 7525,
  "áĩĤ": 150480,
  "versations": 72995,
  "ĠrÄĻk": 135182,
  "?\");Ċ": 46091,
  "Ġras": 49910,
  "ĠØ±Ø¨ÙħØ§": 139869,
  "ðŁĶĳ": 147614,
  "ĠØ§ÙĦØ¯ÙĨÙĬ": 141188,
  "Ġ[]);ĊĊ": 41401,
  "runtime": 22255,
  "åħīå½©": 113314,
  "ĠnextState": 69815,
  "ĠiliÅŁki": 132156,
  "ĉfreopen": 89679,
  "Ġ\"--": 14482,
  "Ġ×Ĳ×ł×Ļ": 128297,
  "_DBG": 37620,
  "ç«ĻçĤ¹": 108294,
  ")reader": 96866,
  "å¤Ħå¢ĥ": 113534,
  "ãĤ³ãĥ¼ãĥĴãĥ¼": 142260,
  "ÑģÑĥÐ´": 133203,
  "Ġtypeid": 86806,
  "////////////////////////////////": 3898,
  ":variables": 56205,
  "ĠFA": 15008,
  "@endforeach": 71581,
  "Iss": 28216,
  "Ġnormals": 53452,
  "ÐºÐ»ÑİÑĩÐ¸": 134757,
  "irectional": 44670,
  ">');Ċ": 22085,
  "/var": 92146,
  "âļħ": 150709,
  "åľ°åĿĹ": 106522,
  "ç®Ģä»ĭ": 102335,
  ".Printf": 19367,
  "ĠDrinking": 82581,
  "Å´": 148942,
  "(),'": 59000,
  "ĠBurr": 86184,
  "Ġlatina": 57315,
  "Ġconstitutes": 41575,
  "Ġenthusiastically": 98225,
  "âĢĶor": 50649,
  "vest": 7019,
  "Ø®Ø·Ø·": 134543,
  "æī¹åĩĨ": 104471,
  ".Btn": 44182,
  "YC": 92844,
  "åĪĨéĴŁåĲİ": 115029,
  "ĠMK": 26859,
  "Clinical": 95730,
  "eyJ": 84609,
  "Thread": 6855,
  "æ¯ıä¸Ģä¸ª": 104367,
  ".sym": 50901,
  "izzly": 72725,
  "à¹Ģà¸§à¸Ńà¸£à¹Į": 134447,
  "Ġwf": 41248,
  "Ð¾Ð±ÑĢ": 131014,
  "ĠRaces": 97100,
  "Ġlux": 14050,
  "çļĦéĩįçĤ¹": 108224,
  ".FileInputStream": 64372,
  "ĠJazeera": 84924,
  "Ġima": 92693,
  ".commit": 15728,
  "ĠAthena": 78689,
  "'app": 52049,
  "ĠìĺĪìĤ°": 138892,
  "å¿ħé¡»": 100645,
  "ĠDAM": 12360,
  "handler": 17905,
  "ĠØ¥ÙĨÙĩ": 133534,
  "Ġmonet": 57091,
  "ãĥĨ": 56833,
  "mdl": 47214,
  "ãģ£ãģ¦ãģĦãģı": 141165,
  "Ġtá»ĵn": 137106,
  "ĠTorch": 78743,
  "çĶµè·¯": 103290,
  "Ġabundant": 43511,
  "à¸ĸà¸²à¸¡": 126008,
  "çİ°ä»£": 100390,
  "ACITY": 62985,
  "_prices": 65688,
  ".âĢĿĊĊ": 2879,
  "è®ºåĿĽ": 102002,
  "*A": 74721,
  "ĠTraff": 66748,
  "ĠMessageBox": 10299,
  "Ich": 40369,
  "_vector": 12247,
  "ïºŃ": 144352,
  "inium": 63890,
  "ĠcomeÃ§ar": 139143,
  "-economic": 76149,
  "ëĸ¤": 144661,
  "cjÄħ": 131176,
  "Ġnell": 65802,
  "Nut": 78470,
  "åħ¬ç½ĳ": 111338,
  "Lemma": 45325,
  ".reject": 30642,
  "Ġpolitely": 80767,
  "Ġwym": 71241,
  "ä¹°åįķ": 117812,
  "à¸Ŀ": 124356,
  "åĮĹç¾İ": 110217,
  "ĠÅģ": 141297,
  "-more": 49914,
  "ĠHashSet": 18931,
  "ä½Ĩæĺ¯åľ¨": 107024,
  "ando": 4883,
  "ĠRoad": 9536,
  "å¯Įè£ķ": 109461,
  "è»Ł": 103519,
  "tere": 54604,
  "(Button": 66824,
  "ĠChristianity": 31086,
  "volatile": 27307,
  "éĻ¢åī¯éĻ¢éķ¿": 117532,
  "yx": 51826,
  "(withIdentifier": 44311,
  ":System": 69112,
  "Ġthrive": 40872,
  "ĠAbbas": 70145,
  "-position": 33524,
  "èīº": 99434,
  "ĠLiebe": 93719,
  "à³": 55890,
  "Ġreceptions": 80193,
  "\\Helper": 62354,
  "glich": 28494,
  "Ġbalanced": 23831,
  "Ġauthenticate": 33189,
  "ĠNAME": 19122,
  "Ġcx": 20716,
  "regions": 57708,
  "ðĿĶŀ": 149878,
  "ä¾¥": 103851,
  "cop": 37728,
  "æŁ°": 120054,
  "Leo": 98667,
  "POL": 49303,
  "Ġbuflen": 88364,
  "ĠAllow": 26530,
  "×ķ×ľ×ª": 135371,
  "ĉconf": 67850,
  "arel": 30431,
  "ç§¯æŀģåıĤä¸İ": 109132,
  "ĠDucks": 67782,
  ".movie": 43346,
  "à¸ŀà¸¹": 129604,
  "ĠLah": 67442,
  "_Adjust": 41704,
  "Ġsampling": 24892,
  "éķ£": 121896,
  "ĉcout": 7700,
  "âĿ®": 146786,
  "Constraint": 17890,
  "-this": 60191,
  "Ġrestaurants": 15556,
  "Ġdepression": 18210,
  "ĉiNdEx": 95765,
  "éĤĦæ²Ĵ": 117210,
  "_CATEGORY": 39284,
  "Ø¨Ø§Øª": 126628,
  "ĠÂ·": 9592,
  "èį¥": 120046,
  "Ø«ÙĪØ±": 132695,
  "èĳĹä½ľæĿĥ": 114033,
  "åįĶæľĥ": 117900,
  "Motor": 33577,
  "ĠReese": 81539,
  "_lastname": 93212,
  "éģķãģĨ": 131077,
  "ĠGlobalKey": 85358,
  ">?": 47585,
  "odu": 75955,
  "Ġpremiums": 47507,
  "è¡ĮæĶ¿æī§æ³ķ": 112966,
  "Ġfld": 59166,
  "unkt": 43226,
  "ivityManager": 69557,
  "stdbool": 62556,
  "ãĢ»": 149355,
  "Ġlightly": 33404,
  "ĠnarzÄĻdzi": 140252,
  "Ġdiversity": 19492,
  "Ġsensit": 73533,
  "ãĥķãĥ©": 134936,
  ".constraint": 29114,
  "ï½ĸ": 144507,
  "Ġmdl": 51700,
  "Ø§Ø¹ØªÙĤØ§ÙĦ": 143501,
  "ĠsÄ±k": 126998,
  "WindowSize": 87817,
  "Ġliá»ĩt": 137513,
  "spoken": 51758,
  "ĠCopp": 80999,
  "æł¸éħ¸æ£Ģæµĭ": 111069,
  "iene": 42568,
  "Ġarticles": 9709,
  "-important": 97373,
  "subtotal": 73483,
  ",pos": 52939,
  "ĠÐ¿ÑĢÐµÐ´Ð¿ÑĢÐ¸ÑıÑĤÐ¸Ñı": 139828,
  "Ġtu": 9765,
  ".scala": 64675,
  "obra": 28856,
  "IALOG": 32375,
  "deleted": 26521,
  "Ã¤nner": 42524,
  "Ø·Ø¨Ø¹": 135910,
  "DRAM": 78760,
  "fx": 8298,
  "Ġ\".$_": 88947,
  "å»Ł": 119100,
  "serde": 47024,
  "(np": 9900,
  "èĬ±å¼Ģ": 113203,
  "veget": 82471,
  "à¸Ńà¸±à¸ŀ": 140665,
  "Ġfe": 1152,
  "Politics": 95936,
  "larÄ±yla": 133006,
  "damage": 42865,
  "ĠSl": 6852,
  "ä¸º": 17714,
  "Creates": 54868,
  "_trait": 78491,
  "ĠShen": 57780,
  "ĠGameManager": 48714,
  "rians": 35168,
  "nehmer": 88487,
  "ighbour": 46818,
  "âĭĺ": 149646,
  "ê¹Ŀ": 144338,
  "ĠNasÄ±l": 137038,
  "×¨": 50226,
  "Library": 16915,
  "Ġchang": 2547,
  ".descriptor": 94802,
  "istributed": 25146,
  "ð§": 123007,
  "ĠPeterson": 39791,
  "ëŁ¼": 125894,
  "ĠØ¬ÙĩØ©": 138887,
  "ĠDEAD": 78069,
  "Ġcable": 14652,
  "å¾®åĪĽ": 117652,
  "(Create": 81243,
  "assignment": 29951,
  "esan": 62424,
  "ĠMeans": 59707,
  "robe": 32836,
  "Ġ}}>{": 87715,
  "à¸Ńà¸°": 125075,
  "ĠUICollectionView": 28577,
  "ÙħÙĨØ§Ø²": 142774,
  "Ġ\"|": 25203,
  "Ġ//----------------------------------------------------------------": 35619,
  "Ġcd": 15307,
  ".Dispatcher": 96868,
  "prot": 4391,
  "ä¿¨": 120156,
  "Ġdaha": 61494,
  "arda": 71526,
  "æ»¤": 102980,
  "Telegram": 72244,
  "_side": 30862,
  "Ġbast": 31977,
  "áº¥n": 124644,
  "å§ŀ": 122547,
  "ĠArist": 51929,
  "çķĢ": 119864,
  "è³ª": 101504,
  "æĸ¯åŁº": 103791,
  "_ALL": 16269,
  "æ¸į": 114820,
  "ĠÑģÐ¾Ð´ÐµÑĢÐ¶Ð°": 132636,
  "ç´łæĻ´ãĤīãģĹãģĦ": 139661,
  "$response": 39158,
  "ĠCampus": 38580,
  "Credits": 69339,
  "$link": 65902,
  "ÙĬØ§ÙĨ": 125691,
  "=\"\")Ċ": 63741,
  "Ġstore": 3553,
  "æ¯ĽåŃĶ": 114449,
  "ĠDEC": 42817,
  "åħ¶æīĢ": 111014,
  ".axes": 57914,
  ".Reverse": 95691,
  "USTER": 46009,
  "ä¼łéĶĢ": 112032,
  "ObjectOfType": 73323,
  "Ġdisclaimer": 17673,
  "_converter": 74073,
  "æļĸæ°Ķ": 115829,
  "Camera": 13445,
  "SER": 31981,
  "åıĤæķ°": 32665,
  "ĠwiÄĻks": 128169,
  "(CharSequence": 72646,
  "éĻĮ": 101583,
  "Ġ\\''": 86659,
  "ĠìĹŃìĤ¬": 136608,
  "_FINISH": 87093,
  "æ¬§æ´²": 104123,
  ".STATE": 57277,
  "ĠProtector": 81119,
  "ä£": 123178,
  "%C": 66590,
  "áĦĭ": 146974,
  "Ġfocus": 5244,
  "Ġdistributor": 43068,
  "-payment": 72443,
  "Ġwasting": 47797,
  "Este": 42990,
  "çĵ»": 122854,
  "é¡ºä¸°": 115921,
  "ĠTNT": 88131,
  "Ġsucceeded": 25331,
  "è·Ŀ": 99946,
  "Wer": 91992,
  "ĠMoments": 82021,
  "entrÃ©e": 134944,
  "-ng": 82963,
  "Ġmnie": 73073,
  "èĥŃ": 120451,
  "VML": 48504,
  ")\");Ċ": 20996,
  "ĠOrganizations": 66692,
  "odon": 76052,
  "deep": 32880,
  "ĠBez": 96889,
  ".getProperty": 20462,
  "ĠÙĦÙĨ": 129225,
  "(true": 3715,
  "Ġspent": 7391,
  "inos": 15215,
  "ê½ī": 145020,
  "ãģĦãģĳ": 131033,
  "Blocked": 95847,
  "à¸Ńà¸Ļà¸¸": 127695,
  "ĠregiÃ£o": 134306,
  "mes": 8828,
  "ĠArthur": 27586,
  "$url": 40373,
  "åįķ": 23990,
  "ĠSvg": 81055,
  ".thumbnail": 67374,
  "Win": 16970,
  "æĳĺè¦ģ": 106208,
  "itledBorder": 85121,
  "ĠJiang": 60822,
  "andes": 61352,
  "Ġ×ª×Ļ×§": 136638,
  "ĠAly": 68310,
  "ĠFerdinand": 92507,
  "Ġairport": 16733,
  ".WebElement": 89792,
  ".isUser": 93994,
  "å¯»æ±Ĥ": 105789,
  ".nombre": 32577,
  "ĉgbc": 78539,
  "Ġreviewer": 55514,
  "Ġindexes": 24953,
  "ĠkaÅ¼dego": 135785,
  "Ġcyt": 78809,
  "Ġdownside": 51397,
  ".datasource": 76978,
  "éķ¥": 123620,
  "(ch": 7520,
  "ç¦ģ": 100085,
  "Ġdisappe": 20837,
  "PURE": 45361,
  "çĸıæķ£": 115994,
  "à¸Ľà¸£à¸°à¸ªà¸ĩà¸Ħà¹Į": 139569,
  "Hier": 74909,
  "ĠYog": 94571,
  "ë§¸": 146241,
  "ĠiÅŁaret": 138296,
  "æĬ»": 119803,
  "è·Ł": 99557,
  "(do": 66405,
  "$(\"": 44490,
  "ì¿°": 146291,
  "Ġrank": 7077,
  "Ġì°¸": 127969,
  "ĠMarion": 55579,
  "Ø³Ø§Ø¦Ø±": 140839,
  "ĠĠĠĠĠĠĠĠĠĠĠĠĠĠĠĠĠĠĠĠĠĠĠĠĠĠĠĠĠĠĠĠĠĠĠĠĠĠĠĠĠĠĠĠĠĠĠĠĠĠĠĠĠĠĠĠĠĠĠĠĠĠĠĠĠĠĠĠĠĠĠĠĠ": 46145,
  "=[\"": 27965,
  "ĠÐŀÑĩÐµÐ½ÑĮ": 140153,
  "Ġ}}</": 11330,
  "èĹ¿": 122007,
  "Ġstumble": 74137,
  "Charts": 64878,
  "Acknowled": 90236,
  "íĢ¸": 145250,
  "Ñ´": 147162,
  ".num": 10522,
  "èĪĮå°ĸ": 118699,
  "Ø£ØŃÙĥØ§Ùħ": 139655,
  "datatype": 62409,
  "_statement": 37404,
  "ĠFirestore": 94266,
  "Ġviability": 67407,
  "none": 6697,
  "ĉĠĠĠĠĠĠĠĠĠĠĠĠĠĠ": 95805,
  "entifier": 7189,
  "ĠCarey": 65218,
  "outil": 30158,
  "__))": 63553,
  "ÑīÐ°": 129559,
  "Ġratios": 41238,
  "æŃ¦è£ħ": 105031,
  "ÙĪØ§Øª": 124691,
  "ëĤľ": 126588,
  "è¯±": 100609,
  "/if": 91183,
  "ãĪĳ": 150767,
  "ë£Į": 63256,
  "ìĹł": 144557,
  "æºĲèĩª": 111705,
  "ĠWie": 42616,
  "Ġstatues": 57902,
  "AGO": 71061,
  ".dumps": 21528,
  "ĠHTML": 9308,
  "ĠDt": 94151,
  "èµĦæºĲæķ´åĲĪ": 117480,
  "Ġmascot": 84665,
  "icional": 62793,
  "Error": 1454,
  "_patterns": 64923,
  "Ġsmack": 90494,
  "åĴĿ": 119875,
  "ĠCelsius": 61347,
  "Gamma": 40457,
  "ollow": 1544,
  "Ġvacuum": 28202,
  "ĠGPA": 70055,
  "toList": 41907,
  "ĠAlexa": 49612,
  "(groups": 67219,
  "åĢŁåĬ©": 105267,
  "ĠdataSet": 56053,
  "Que": 25776,
  "ĠVoter": 94024,
  "engineering": 97915,
  "éħįèµĦ": 114631,
  "Ø¹ÙĪØ¯": 124915,
  "Ġpathname": 39683,
  ".textContent": 25850,
  "å®«é¢Ī": 118237,
  "Ġflank": 69492,
  "_way": 48936,
  "draulic": 32742,
  "à¸Īà¸±à¸ĩà¸«à¸§à¸±à¸Ķ": 129584,
  "åħļä¸Ńå¤®": 106638,
  "ÙħØ³ØªØ´Ùģ": 137589,
  "Ã¢": 8835,
  "_pins": 90089,
  "slideUp": 78274,
  "ä¿®": 23081,
  "_continue": 75297,
  "ACL": 55393,
  "ãģ«ãģ¤ãģĦãģ¦ãģ¯": 132004,
  "è¿ŀæİ¥": 64064,
  "åħ¬ä¸»": 105454,
  "åľºåľ°": 105844,
  "RAND": 79046,
  ".round": 16762,
  "cen": 47322,
  "WriteBarrier": 38754,
  "-cycle": 77690,
  "æĢ¥æķĳ": 110430,
  "ĠPir": 38493,
  "levation": 43757,
  "ĠUnityEngine": 7207,
  ".Preference": 89846,
  "ĉdes": 52912,
  ".python": 43193,
  "_ANGLE": 78934,
  "ðĿķ¯": 150080,
  "rather": 73203,
  "Ġzaw": 64007,
  "Ã": 127,
  "ĠDeze": 87836,
  "ĠAssemblyCopyright": 94017,
  "Brown": 48388,
  "Highlights": 96306,
  "Ġgemacht": 69876,
  "è§ģè¯Ĩ": 112518,
  "_fds": 90438,
  "éªĢ": 120007,
  "ĠMonsanto": 72926,
  "ĠIonic": 39574,
  "åįģä¹Ŀå±Ĭ": 118078,
  "Ø§ÙĦÙĬ": 124421,
  "oron": 84850,
  ".XML": 48126,
  "Ġplagued": 65302,
  "Ġà¸Ĺà¸µà¹Ī": 128477,
  "Ġspecular": 85417,
  "itty": 22814,
  "---": 4421,
  "à¹Ģà¸Ķà¸Ńà¸°": 141267,
  "telephone": 51927,
  "×§×ľ×ĺ": 141371,
  "ç¾İåħĥ": 101237,
  "....Ċ": 77828,
  "ïº¦": 146503,
  "ĠGenerated": 30488,
  "_general": 39177,
  "ä¸ĢéĤĬ": 117457,
  ".gridx": 71429,
  "Ġconsultar": 98337,
  "Ġbusc": 63182,
  "Ġdisgu": 40777,
  "ologne": 67444,
  "pta": 51591,
  "/Documents": 54730,
  "ÑĢÐ¸Ð½": 134105,
  "Ã¤Ã¤": 42443,
  "()\"Ċ": 99144,
  "»¿": 3219,
  "ĠLogLevel": 63321,
  "æĢı": 119962,
  "Ø§ØªÙĩ": 130110,
  "ĠDixon": 63695,
  "ĠJR": 52566,
  "ä¸īåŃ£åº¦": 116333,
  "æ±": 21280,
  "ÑĤÐ²ÐµÑĢÐ¶": 127960,
  "eff": 6445,
  "Ġsession": 3797,
  "onda": 18194,
  "Æ°á»Ŀi": 85532,
  "à¸£à¸°à¸«à¸§": 129778,
  "ĠOffer": 24498,
  "_visibility": 71256,
  "æĤł": 100123,
  "è½°": 103086,
  "à¸ķà¹īà¸Ļ": 125557,
  "çĬ·": 119632,
  "razil": 14042,
  "éļĲèº«": 117629,
  "ãĤ¢ãĥ¡ãĥª": 131965,
  ".gateway": 80292,
  "çļĦéĴ±": 106714,
  "âķĦ": 148859,
  ".Check": 10600,
  "íķµ": 138014,
  "æº²": 121049,
  "âĪ£": 148055,
  "Ġlong": 1293,
  "Ø¯Ø±Ø³": 133420,
  "ETING": 85851,
  "DOWNLOAD": 68251,
  "_opcode": 71319,
  "ĠMCC": 98252,
  "vlan": 89622,
  "æ¹İ": 121045,
  ".getRequestDispatcher": 70176,
  "Registration": 23365,
  "indle": 57763,
  "reds": 53369,
  "ìĿ´ëĿ¼ëĬĶ": 131411,
  "ĠWorth": 36146,
  "ĠPORT": 19075,
  "ĠÑħÐ¾ÑĢÐ¾ÑĪÐ¾": 133097,
  "hap": 37810,
  "weather": 15206,
  "æľīä¿¡å¿ĥ": 112162,
  "ê§Ī": 150835,
  "ĠSms": 95389,
  "ral": 3461,
  "walker": 44252,
  "ToggleButton": 93145,
  "ĠCompared": 58713,
  "links": 15880,
  "Ġahora": 46317,
  "\\Page": 94662,
  "_As": 62741,
  "Ġspark": 15186,
  "âĹħ": 146400,
  "Ġprison": 9343,
  "roll": 1100,
  "ĠDos": 56920,
  "×¨×©×ª": 130066,
  "ew": 365,
  "è£ķ": 101623,
  "Prepare": 50590,
  "ãħĥ": 147783,
  "Ġtunnel": 25629,
  "ĠgetField": 70964,
  "ĠcompaÃ±ÃŃa": 136453,
  "éĩĿ": 103594,
  "è£¡": 100501,
  "ÑįÐºÐ¾Ð½": 131931,
  "ÑĦÐ¸Ð·": 143740,
  "èľļ": 121401,
  "à°¨": 148435,
  ".changed": 68216,
  "×Ļ×Ľ": 124048,
  "ics": 1211,
  "ì¼Ĳ": 145727,
  ".assertEqual": 7874,
  "allenges": 42370,
  "ĠÙĦØ¨ÙĨ": 133092,
  "<article": 84826,
  "oug": 48304,
  "Ø±ÙĪØ¹": 125933,
  "ĠSIN": 70002,
  "à¸¥à¸´": 128736,
  "_cate": 92049,
  "ä·¸": 150816,
  ".transform": 8134,
  "âĶļ": 150687,
  "ãĤıãģĳãģ§ãģĻ": 134386,
  "(author": 48269,
  "áĬ¥": 149563,
  "ÐµÑĢÑĭ": 134373,
  "èĦ¾èĥĥ": 116692,
  "[b": 18483,
  "Animate": 82225,
  "Ġigen": 91229,
  "à¸ªà¸¡à¸±à¸Ħà¸£": 126817,
  "Ġ×©×Ĳ×ł×Ļ": 129557,
  "Ġslap": 50052,
  "Ġvelvet": 71326,
  "ĠEbook": 88671,
  ".databind": 54873,
  "another": 41963,
  "ĠRevenue": 37393,
  "çĪ±ä¸Ĭ": 108991,
  "æµĵæµĵçļĦ": 117566,
  "ĠPERMISSION": 96540,
  "porn": 56650,
  "-too": 93579,
  "Ind": 1425,
  "Ġfake": 12418,
  "ĠWroc": 139221,
  "åĵĤ": 120107,
  "çĦ±": 121041,
  "è°¬": 118491,
  "Ø§Ø®ØªØ¨Ø§Ø±": 137258,
  ".cms": 69005,
  "ØªØ´": 125617,
  "etes": 95181,
  "_CHUNK": 70508,
  "è¯ķè¯ķ": 108179,
  "ricing": 38806,
  "Ġbursts": 65701,
  "ðĿĻļ": 147050,
  "ĠÐ´Ð¾ÐºÑĥÐ¼ÐµÐ½ÑĤÐ¾Ð²": 139475,
  "à¸ĺà¸£à¸£à¸¡": 125242,
  "è¶ħé¢Ŀ": 117527,
  "UILD": 18023,
  "////////////////////////////////////////////////////////////////////////////////ĊĊ": 98320,
  "edited": 61403,
  "_GENER": 18693,
  "Kit": 7695,
  "é«ĺåº¦éĩįè§Ĩ": 106544,
  "Ð²Ð°Ð½": 129751,
  "è¿ĩé«ĺ": 110924,
  "Serve": 60421,
  "éĵİ": 120411,
  "Ġfire": 3940,
  "ä¼ºæľį": 117300,
  "Ġmilfs": 91974,
  "ï¼": 1540,
  "ä¹³": 100489,
  "(transaction": 44004,
  "Stick": 88108,
  "Marg": 44237,
  "çį¸": 118086,
  "orean": 45195,
  "ĠdbHelper": 95980,
  "Ñĸ": 26289,
  "ĠÐ¿ÑĢÐ°Ð²Ð¸Ð»Ð°": 138700,
  "novation": 98748,
  "ĠÃ¼berhaupt": 139906,
  "ĠBav": 76980,
  ".enqueue": 47468,
  "/sec": 60071,
  "notated": 87029,
  "ĠEITHER": 93475,
  "Sep": 41114,
  "intendent": 43402,
  "Arm": 32913,
  "Ġ<*": 86202,
  ".UserId": 37478,
  "ighbours": 52117,
  "ueling": 78997,
  "irms": 14404,
  "ĠWorce": 73188,
  ".Pixel": 67637,
  "Ġ{}Ċ": 5613,
  "åĺ¤": 121428,
  "ĠBy": 3216,
  "*/": 1812,
  "ĠÐĳÐ°": 132223,
  "ðĿĵĥ": 148213,
  "=no": 30315,
  "ĠHodg": 82884,
  "'],čĊ": 30390,
  "ĠuÃ§ak": 141478,
  "htt": 96336,
  "Ġsinks": 56952,
  "\"},{\"": 36509,
  "å¯¹åĨ³": 115459,
  "ðĿĳĵ": 146894,
  "Ġatrav": 70406,
  "ç»ĦæĪĲçļĦ": 107339,
  "reg": 1580,
  "çĭ®": 102849,
  "×ĺ×Ļ×ĳ": 127499,
  "lu": 9835,
  "ï¼®": 138309,
  "èļĦ": 122632,
  "çŁŃæľŁåĨħ": 111836,
  ">s": 41329,
  "ç½ĳéĢļ": 115080,
  "çĤ¹æ»´": 118354,
  "ativity": 43415,
  "Timestamp": 20812,
  "CppMethodIntialized": 81829,
  "ãģĺãĤĥãģªãģĦ": 126908,
  "ïº£": 144734,
  "On": 1925,
  ").ĊĊĊ": 49555,
  "ĠAlexis": 58961,
  "éĻĨ": 97145,
  "gender": 12968,
  "ĠExhaust": 88234,
  "ĠMessiah": 80341,
  "ToolTip": 34745,
  "äºĨä¸Ģä»½": 113361,
  "_nv": 79430,
  "flashdata": 71934,
  ".APPLICATION": 33697,
  "é²£": 121650,
  ".Float": 29794,
  "ABL": 93935,
  "çĹħæ¯ĴæĦŁæŁĵ": 115275,
  "ĠPain": 34467,
  "Ġfran": 22156,
  "coef": 64650,
  "Ġlow": 3347,
  "ĠdonnÃ©es": 45581,
  ",dim": 91324,
  "looks": 94273,
  ".MIN": 37470,
  "ĠIsraeli": 15907,
  "(SP": 86503,
  "ĠRotation": 47528,
  "ajaran": 84033,
  "iesta": 58449,
  "ä¸ĢçĤ¹": 100380,
  "ĠìĤŃìłľ": 76592,
  "ĠJudgment": 88562,
  "èª¿": 101596,
  "è°«": 123273,
  "ĠbgColor": 73130,
  "_TE": 36222,
  "(win": 36087,
  "ÙħÙĪØ§ÙĤ": 140539,
  "ĠYankee": 85576,
  "éĴĪç»ĩ": 118377,
  "-haired": 67379,
  "æ¶²ä½ĵ": 109181,
  "_mag": 48310,
  "Ġsynonym": 73350,
  "ollah": 47855,
  "ç¿Ĵæħ£": 113944,
  "_proto": 37689,
  "ĠEdgar": 58991,
  "èŃĺ": 101000,
  "SeekBar": 83391,
  "åķĦ": 119406,
  "atu": 35309,
  "ìĳĪ": 146791,
  "ðĿĴĲ": 146603,
  "Ð½Ð¸ÑĨÐ°": 131692,
  "unar": 84992,
  "Ġ×Ľ×ķ×ľ": 126833,
  "Ġencountering": 91272,
  "æĸ¹ãģ¯": 129727,
  "çİ°ä»£çī©æµģ": 116646,
  "Æ¸": 146609,
  "ðŁı¯": 151392,
  "æīĵæĸŃ": 115458,
  "Ġcrafted": 33458,
  "ĠwysokoÅĽci": 140257,
  "ulled": 91022,
  "Ġbord": 37902,
  "OS": 3126,
  "\">": 755,
  "çļ¿": 119303,
  "ĠPositive": 43903,
  "ãĢĤwww": 97972,
  "à¹Ģà¸Ĥ": 124115,
  "åħ»èĤ²": 118950,
  "Ġenjoyable": 31080,
  "×ŀ×Ĵ×ķ×ķ×Ł": 132583,
  "*ft": 54212,
  "ĠSpells": 78053,
  "ĠLeaving": 72962,
  "Ġconsume": 24057,
  "æ³ĥ": 122354,
  "Ġteenage": 33168,
  "Ġmsec": 80359,
  "ighest": 7504,
  "âĽ±": 147209,
  "éĢĽ": 102946,
  "íľ": 124135,
  ".override": 96802,
  "áĢĵ": 149544,
  "ĠGor": 46147,
  "çºłç»ĵ": 109848,
  "ä¸ĢèĪ¬æĺ¯": 111071,
  "ĠmayorÃŃa": 85316,
  "-state": 20733,
  "OTOS": 58587,
  "ä¸Ĭæ±½": 113191,
  "×Ŀ": 123802,
  "èĢĮå¯¹äºİ": 111790,
  "]){Ċ": 26072,
  "mapping": 40792,
  "ĠuseEffect": 14233,
  "usa": 30753,
  "letion": 52625,
  "Ġ×ľ×¦×¤": 143980,
  "âĩĺ": 148844,
  "ielding": 98992,
  "ä°Ģ": 149717,
  "theValue": 73277,
  "Ġfors": 74651,
  "])+": 47966,
  "ĠzewnÄĻtrzn": 141881,
  "ĠBobby": 37381,
  "ãĪ«": 150123,
  "_products": 29622,
  "Ġmass": 3072,
  "cgi": 72415,
  "íİĢ": 144419,
  "jwt": 41592,
  "Ġelectrom": 53607,
  "çŁĽ": 102229,
  "ĠBigNumber": 53673,
  "ĠÐ°Ð²": 67728,
  "ĠCathy": 81348,
  "âĺĤ": 145866,
  "è±ĨèħĲ": 107590,
  "æķ¸": 102260,
  "_UNKNOWN": 31546,
  "Ġdosage": 45940,
  "ĠHinderedRotor": 95065,
  "ðŁķŁ": 149937,
  "è¦ģåģļåĪ°": 114592,
  "èĭĵ": 119824,
  "ä¸Ģå¹ķ": 110542,
  "ĠÃ¶ÄŁren": 130947,
  ">;čĊ": 84109,
  "Ð»ÐµÐ³": 129495,
  "çĶŁæ´»çļĦ": 105301,
  "èĮ³": 122426,
  "->[": 69912,
  "iment": 3819,
  "ÙĦØ§Øª": 130434,
  "zd": 48655,
  "%D": 54643,
  "ĠademÃ¡s": 62330,
  "åº¾": 120755,
  "Ġsubscribed": 52100,
  "Ġcuis": 30447,
  "hin": 41557,
  "ĠHussein": 60528,
  "Ġpolluted": 94769,
  "è¨»åĨĬ": 101766,
  "äºĴéĢļ": 103652,
  "æ¸¯èĤ¡": 109791,
  "errorMessage": 43169,
  ".layoutControlItem": 41953,
  ".firebase": 20553,
  "æŁ¥çľĭ": 100111,
  "Ġdocumented": 26372,
  "ãĥªãĥ³": 127217,
  "ĠsaÃºde": 96895,
  "_CIPHER": 80973,
  "Ġcontests": 46503,
  "ÙĤØ§Ø±": 126009,
  "åį³": 91676,
  "ìĳ¹": 147110,
  "Ġ}];Ċ": 19376,
  "á¼ĵ": 150607,
  "ertiary": 66530,
  "å¨ģåĲį": 108130,
  "assy": 26703,
  "ÙĤØ·Ø¹": 130389,
  "Ġmush": 29723,
  "ĠdifÃŃcil": 85480,
  "PID": 33751,
  "èĵ¼": 121380,
  "bb": 6066,
  "Ġdraped": 89880,
  "ðĿĵħ": 148935,
  "ëĪī": 144296,
  "_api": 11697,
  "_Pr": 32716,
  "å«ĸ": 121529,
  "Ġê¸Ģ": 131522,
  "å¤§æĪ·": 112943,
  "_Product": 44017,
  "çļĦæĦıæĢĿ": 105855,
  "Ð½Ð¸Ð±ÑĥÐ´": 139614,
  "è·Łè¿Ľ": 111933,
  "Ġattribute": 7035,
  "ĠBlend": 54148,
  "ĠÄĳá»ĵng": 128329,
  "è¡ĥ": 122663,
  "_xyz": 64974,
  "_power": 20421,
  "·æĸ°": 91050,
  "ĠtecrÃ¼": 143451,
  "READ": 9560,
  "INavigation": 44111,
  "ĠPlumbing": 92600,
  "Ġentreprises": 96163,
  ".Response": 12574,
  "ãģıãģłãģķãģĦ": 71215,
  "_tD": 88741,
  "developers": 64305,
  "íİ´": 144246,
  "ÑĪÐ¸Ñħ": 125349,
  "çĳģ": 121096,
  "psych": 91009,
  "Ġ×ĳ×ł×ķ×¡×£": 132993,
  "staticmethod": 22215,
  "Teen": 64231,
  "à¹": 8158,
  ".setSelection": 68810,
  "ĉĉĠĠĠĠĉĉ": 98878,
  "Ġheld": 5644,
  "ĠuserName": 19855,
  "_trap": 88536,
  "Ġ×ł×¨×Ĳ×Ķ": 130708,
  "Ð¿ÑĥÐ±": 138796,
  "EXTERN": 76402,
  "ĠgiÃ£n": 143164,
  "æ¥Ĥ": 121142,
  "Ġskyline": 87739,
  "-times": 44448,
  "åľ¨çº¿": 99107,
  "ordination": 98244,
  "_RESULT": 21181,
  "Â°": 11616,
  "(Chat": 65038,
  "Ġnervous": 22596,
  "Ġhij": 21415,
  "çļĦçľ¼ç¥ŀ": 109563,
  "ï¹ħ": 148464,
  "á½Ģ": 146851,
  "ä¹Ī": 81596,
  "Ġensuring": 22573,
  "halb": 49662,
  "èĢĥè¯ķ": 103960,
  "Ġnote": 5185,
  "!?": 57390,
  ".getX": 25493,
  "Ġapplication": 3766,
  "Interestingly": 81890,
  "çĶ·ä¸»": 115591,
  "iquer": 71584,
  "ĠDepartments": 84508,
  "æį®è¯´": 106619,
  "ë§¥": 144026,
  "yps": 75199,
  "ãģªãģĦãģĵãģ¨": 140635,
  ".blit": 38536,
  "ĠëĲľëĭ¤": 130723,
  "Sl": 7442,
  "bundle": 34518,
  "Ġassoc": 59607,
  "ĠBaldwin": 54918,
  "Ġimmature": 85425,
  "Ġboasts": 37019,
  "Ð¾Ð²Ð°Ñı": 131138,
  "mieÅĽci": 134938,
  "Ġpreds": 60721,
  "æŀģå¤§": 106958,
  "Ġeast": 10984,
  "Ġ×ª×ķ×ĵ×Ķ": 131027,
  "Michael": 25516,
  "Ġvide": 23029,
  "é¹ª": 121910,
  "_engine": 24823,
  "Ġ\\'": 27152,
  "Ġskillet": 77985,
  "ÙħØ¬ÙħÙĪØ¹": 142089,
  "å²ł": 122224,
  "ĠAngola": 97692,
  "Ø´ÙĩÙĬØ¯": 143938,
  "ĠLocale": 34526,
  "Ġseguridad": 63304,
  ".Le": 11824,
  "Ġrecib": 45269,
  "olutions": 20201,
  "ï¦Ŀ": 148458,
  "kids": 73896,
  "PropertyParams": 85884,
  "Ġtc": 17130,
  "istro": 15561,
  "äº§åĵģ": 82700,
  "arkin": 92321,
  "Ġë°Ķë¡ľ": 130737,
  "ĠMemory": 13850,
  "ðŁĽı": 148729,
  "×Ĳ×ķ×§×ĺ": 141908,
  "çļĦæķĪæŀľ": 105005,
  "ä´Ģ": 150813,
  "ĠkW": 77477,
  "à¸Ńà¸±à¸Ļà¸ķà¸£": 140789,
  "snippet": 57615,
  "Scaling": 59684,
  "Ø¨ÙĤØ§Ø¡": 140478,
  "ĠTunnel": 65601,
  "tri": 22446,
  "èĪµ": 119029,
  "jie": 96237,
  "ãĺ": 123614,
  "ĉtitle": 24751,
  "Regressor": 93139,
  "Ġspelling": 42429,
  "elloworld": 95292,
  "è¿Ŀ": 99647,
  "Ġwsz": 38391,
  "ç®Ĳ": 121450,
  "Ġbd": 21486,
  "Ġoccupancy": 65319,
  "Contains": 23805,
  "ĠÐ¼Ð¸Ð»Ð»Ð¸": 139641,
  "Ġredirected": 48928,
  "Ġacute": 29783,
  "Ġmixins": 93980,
  "FIT": 67754,
  "ADDRESS": 61005,
  "Validate": 17926,
  "ĠHttpClientModule": 53649,
  "Ġcontamination": 46710,
  "ern": 932,
  "æľ¬ç§ĳ": 102559,
  "ë§Ī": 125544,
  "ĠExpo": 51323,
  ".Cells": 23797,
  "rew": 4266,
  "ä¸Ĭåįĥ": 111329,
  "åĤ³çµ±": 111629,
  "(!": 3471,
  "Ġrend": 17191,
  "Ø¹ÙĤ": 127077,
  "Ġ#%": 50594,
  "á¾°": 148439,
  "åĨįåº¦": 106246,
  "Call": 7220,
  "ĠAzure": 34119,
  "bij": 61269,
  "çľŁ": 88051,
  "-seeking": 98438,
  "Ġgenerally": 8789,
  "Ġtrading": 11133,
  "hy": 8503,
  "-duty": 54518,
  "_VALUE": 7476,
  "toi": 52609,
  "bands": 41906,
  "resh": 2488,
  "æĺ¯ä¸įä¼ļ": 112572,
  "-property": 61401,
  "åŁ": 34622,
  "CAN": 41955,
  "ĠíĮĲ": 140568,
  "è¿Ļç¾¤": 116127,
  "Ġabbiamo": 94296,
  "ĠolmasÄ±nÄ±": 142721,
  "Ġmercy": 38224,
  "-CS": 78313,
  "ĠInline": 54235,
  "Ġ×¡": 124313,
  "ÑģÐ¸": 124662,
  "Ġhauling": 98446,
  "éŀŃ": 111241,
  "@Setter": 83611,
  "éĹµ": 106181,
  "éķĬ": 121630,
  "_matrices": 95190,
  "/includes": 63659,
  "_NOTIFICATION": 54241,
  "ĠNickel": 66842,
  "ĠPhrase": 68000,
  "js": 2519,
  "ĠØ§ÙĦÙħÙĨØ·ÙĤØ©": 131263,
  "affles": 80535,
  "ĠPointF": 71174,
  "chy": 57964,
  "simp": 20845,
  "Ġson": 4438,
  ".secret": 53940,
  "æĬĢèĥ½åŁ¹è®Ń": 118605,
  "ëĭ": 8843,
  "ĉDefault": 91084,
  "åħ¬ç§¯éĩĳ": 112069,
  "ICI": 74076,
  "zung": 38132,
  "Ġfern": 87024,
  "æĸ°çļĦä¸Ģå¹´": 118581,
  ".watch": 46457,
  "åĽ¢è´Ń": 109699,
  "åį´ä¸į": 108320,
  "ĠĠĠĠĠĠĠĠĠĠĠĠĠĠĠĠĠĠĠĠĠĠĠĠĠĠĠĠĠĠĠĠĠĠ": 9699,
  "condition": 9056,
  "urai": 47913,
  "U": 52,
  "_l": 907,
  "çĲ¥": 120844,
  "ĠØ£ÙĬØ¶Ø§": 126899,
  "walls": 86296,
  "ĠPolice": 10082,
  "åĮĹå®ĭ": 118041,
  "Ġheritage": 27848,
  ".tpl": 34066,
  "(Stream": 52011,
  "Ġstudios": 41695,
  "(tolua": 78602,
  "ĠPut": 10224,
  "Ġsyst": 41245,
  "ä¸Ģç±»": 108514,
  "Ġ:čĊ": 28974,
  "ĠÄĳá»ķ": 136008,
  "Ġquarry": 36070,
  "éģ¥æİ§": 115814,
  "uchos": 67250,
  ".That": 32761,
  "ĠsetSize": 83859,
  "Ġquello": 63954,
  "ĠcÆ°á»Ŀng": 132300,
  "ĠKavanaugh": 37183,
  "ongyang": 56898,
  ":no": 66479,
  "ĠforKey": 18091,
  "à¸£à¸µà¸§à¸´à¸§": 131257,
  "Ġbundle": 12894,
  "ĠACLU": 64868,
  "ä¸Ģä¸ªå¤ļæľĪ": 115936,
  "_original": 39556,
  "å²į": 122221,
  "Southern": 85738,
  "ĠUntil": 28970,
  "Ġbaseman": 83303,
  "plex": 9111,
  "_comm": 25149,
  "_hat": 39773,
  "ä½ĵåĬĽ": 109251,
  "Ó¨": 146573,
  "()},": 76777,
  ":ĊĊ": 1447,
  "(push": 62982,
  "Ġconverged": 96775,
  "ìĭľìĬ¤íħľ": 134620,
  "Ġcircus": 67024,
  "ãģ£ãģĵ": 138589,
  "å»ºçŃĳå¸Ī": 118904,
  "ØŃÙĪØ§ÙĦ": 140027,
  "Ġfingert": 63603,
  "Ġunst": 64790,
  "jÄħ": 36837,
  "ĠRoom": 10420,
  "ĠComputing": 45779,
  "pmat": 94663,
  "âĶ¹": 148809,
  "Gate": 42318,
  "Ðİ": 144787,
  "ĠÑħÐ¾Ð·ÑıÐ¹": 140221,
  "PLE": 9515,
  "ÙģØ±Ø¶": 134210,
  "ĠØ¶": 126815,
  "Ġnews": 3669,
  "Script": 5910,
  "\")]ĊĊ": 72389,
  "èİ·å¥ĸ": 106765,
  "_pushButton": 91468,
  "UTC": 21183,
  "ĠDER": 46777,
  "Ġprice": 3349,
  "Ġplaying": 5619,
  "æŃ¤åĲİ": 107410,
  "Ġdma": 50250,
  "èĮĹ": 117040,
  "RelativeTo": 93347,
  "Ġfanc": 80597,
  "ðŁĦ¸": 150090,
  "ĠQSize": 86257,
  "âĸ¥": 147329,
  "äººåĿĩ": 106372,
  "ĠTot": 38020,
  ".ar": 16711,
  "ãģĤãģĴ": 132506,
  "Ġbor": 31632,
  "è¾ĵäºĨ": 114646,
  "ĠProto": 57677,
  "è±º": 119385,
  "Ġexperiencia": 53313,
  "Ġseus": 41398,
  "å¹ĸ": 123345,
  "_rectangle": 61847,
  "_svg": 76849,
  "ĠsituaÃ§Ã£o": 136578,
  "ULAR": 7081,
  "ß¦": 148290,
  "Ġaccelerated": 48758,
  "Ġobscene": 83009,
  "modifiable": 84079,
  ".Obj": 90191,
  "å¦ª": 119777,
  ";čĊčĊčĊ": 22367,
  "Ġbeh": 2755,
  "ĠDETAILS": 76996,
  "ÙģÙĪØ±": 131393,
  "×ľ×ŀ×Ļ×ĵ×Ķ": 143375,
  "ings": 819,
  "ãĮ§": 146831,
  ".Act": 14140,
  "åħ¥éĹ¨": 110908,
  ".Directory": 54107,
  "oub": 5482,
  "Ġbitter": 25180,
  "çļĦçĽ®åħī": 107741,
  "ĠAbbott": 42127,
  "Ġedi": 75092,
  "keeping": 32394,
  "_kelas": 95914,
  "éłĤãģį": 141486,
  "ĠÐ·Ð°Ð¼": 127912,
  "ĠìŀĳìĿĢ": 143416,
  "Verdana": 62957,
  "ĠProduce": 86888,
  "Ġsalads": 76752,
  "Ġconfigured": 19755,
  "Ġ×Ķ×ĸ×ķ": 130948,
  "éİ®": 109305,
  "(Constants": 25733,
  "à¸Ĥà¹īà¸²à¸ĩ": 126834,
  "åĪĨæŀĲ": 101042,
  "ĠsetValue": 28052,
  "Ġverz": 73197,
  "åĨħãģ§": 138494,
  ".AddDays": 66493,
  "vious": 2469,
  ".Term": 80671,
  "Ð¸ÑĦ": 61709,
  "ĠLisbon": 80701,
  "Ð°ÑĤÐ¾ÑĢ": 57306,
  "\"While": 94863,
  "Ġfollic": 81614,
  "ĠEveryone": 21455,
  "_lineno": 31142,
  "é¦§": 123687,
  "_work": 11498,
  "Average": 26292,
  "á»Ħ": 144221,
  "Ġlimited": 7199,
  "ĠUNESCO": 80776,
  "ç´§è·Ł": 114798,
  "_import": 18434,
  "Ġ:\"": 34638,
  "Ð³ÑĢÑĥÐ¿Ð¿": 134550,
  "ãĥıãĤ¤": 133854,
  "UMB": 71567,
  "Ġtraced": 50300,
  "ACEMENT": 88806,
  ">Type": 87065,
  "ä»»ä½ķäººéĥ½": 119004,
  "Ã¡ng": 124397,
  "ĠMinist": 64892,
  "Ġmay": 1231,
  "ĠStudy": 19173,
  "ãĤ¤ãĥ³ãĤ¿ãĥ¼ãĥį": 136517,
  "ĠdiffÃ©rents": 84014,
  "æĺ¯": 20412,
  "äħ": 123204,
  "isLoading": 54584,
  "HANDLE": 65403,
  "(Response": 47979,
  "ĠMou": 72834,
  "addOn": 58067,
  "EF": 14884,
  "-aged": 56759,
  "Ġpunching": 67881,
  "Ġprey": 36593,
  "Ġminority": 22591,
  "ĠFerm": 98262,
  "ĠcurrentState": 57878,
  "ĠVPN": 30747,
  "å¨±": 99920,
  "_performance": 84833,
  "constraint": 48057,
  "://{": 81776,
  "ä¸ĢäºĽ": 101883,
  "ĠÐ³ÑĢÐ°Ð¶Ð´Ð°Ð½": 131364,
  "ĠOsmanlÄ±": 140412,
  "liÄŁinde": 137161,
  "Ġaust": 99106,
  "ĠPend": 62400,
  "à¸ģà¸µà¹ī": 142333,
  "Past": 50113,
  "Ġmigli": 44479,
  "Ġamplitude": 44109,
  "_sphere": 86973,
  "ÑĤÐµÐ»": 125999,
  "ĠSeks": 76394,
  "ĠRiley": 46835,
  "ĠHerm": 31465,
  "Ġeducators": 49694,
  "strup": 89399,
  ".channels": 39895,
  "ĠEmoji": 82367,
  "Ġnorge": 65922,
  "utto": 55472,
  "çī¹": 65278,
  "ĠphÆ°á»Ŀng": 140515,
  ":{čĊ": 83051,
  "èĤłéģĵ": 113217,
  "ĠGiovanni": 75852,
  "ÙģØ©": 126413,
  "Ġ+'": 49210,
  "Ġ×©×ĸ×Ķ": 130424,
  "ĠÐ´Ð°Ð½Ð½ÑĭÐ¹": 140397,
  "å¬Ľ": 123591,
  "ÈĻ": 20073,
  "ĠChern": 90659,
  "ĠPLAY": 41988,
  "ä¸¾æĬ¥": 102211,
  ".purchase": 85663,
  "Ġperspectives": 38455,
  "ĠSOUND": 84273,
  "Ġlabelled": 60236,
  "ĠMarathon": 50173,
  "ðŁı´": 147665,
  "_lon": 57688,
  "jest": 49015,
  "Ġdownt": 40557,
  "ElementsBy": 53261,
  "Ġglanced": 64557,
  ">*/Ċ": 66475,
  ".getPrice": 75256,
  "enso": 71689,
  "*/,": 29778,
  "×ĳ×ł×§": 131591,
  "ĠFaculty": 41804,
  "ĠØŃÙĪÙĦ": 128967,
  "-guid": 83692,
  "Ġconsolation": 98858,
  "ä¿¡æģ¯åħ¬å¼Ģ": 111910,
  "è¾ĥå¿«": 110563,
  "à¹Ģà¸Ńà¹Ģà¸Ĭ": 138273,
  "Ġ×¢×ķ×ĳ": 136618,
  "Ġseasoning": 86219,
  "Indices": 31941,
  ".addColumn": 76731,
  "}_{": 51535,
  "ç¼Ĺ": 121093,
  "_lost": 88661,
  "å·´å£«": 113010,
  "onClick": 48897,
  "_CBC": 90764,
  ".seq": 43867,
  "ĠÑĥÐ³Ð¾Ð»": 143264,
  ".env": 9265,
  "ĠØ§ÙĦØ´ÙħØ§ÙĦ": 136614,
  "$options": 51484,
  "ful": 1262,
  "Ġ\"\"),Ċ": 72712,
  "Ġproble": 2499,
  "Ð²ÑĢÐµÐ¼": 142804,
  "æĳĩå¤´": 103546,
  "ãģĴãĤĭ": 137921,
  "cmb": 95055,
  "-building": 51399,
  "Ġ{{--": 23896,
  "Ġdy": 13955,
  "ALER": 88378,
  "Ä±rken": 134697,
  "Ð¸Ð·Ð°ÑĨÐ¸Ñı": 139500,
  "Ġsubsystem": 52785,
  "à¹Ħà¸Ľà¸ĸà¸¶à¸ĩ": 138934,
  "_ix": 62686,
  "æĿĨ": 100880,
  "NDER": 35689,
  "åľ¢": 122135,
  "Ġaio": 83943,
  "ĠKotlin": 92854,
  "æŀ¶æŀĦ": 106379,
  "Ġbá»ĳ": 128888,
  ".JsonProperty": 74469,
  "imax": 75109,
  "-interface": 82954,
  "orp": 30115,
  "(_(\"": 45169,
  "ä¸ĬåįĪ": 102449,
  "èħĪ": 120998,
  "ä¸ĩäººæ¬¡": 108381,
  "åĿ¦": 100322,
  ".Course": 72297,
  "×Ĳ×ĸ×ķ×¨": 132084,
  "ä¸Ģä¸ªå¥½çļĦ": 114128,
  "Ġhele": 54095,
  "åºĨ": 99755,
  "ì¶ĺ": 144079,
  "Ġ[])": 42182,
  "ë¦ĩ": 144357,
  "(theta": 27978,
  "Ġtechn": 2799,
  "ĠChand": 66636,
  "comp": 5689,
  "Ã³ÅĤ": 47392,
  "\"),ĊĊ": 65974,
  "Ġtwisting": 79554,
  "Ġroutes": 11291,
  "è¢ĸ": 102885,
  "Ġobscured": 95701,
  "alin": 35107,
  "æľīæľºç»ĵåĲĪ": 116239,
  "'){Ċ": 12298,
  "Ġtratamiento": 88645,
  "çļĦæĶ¿æ²»": 106492,
  "ä¿ŀ": 109775,
  ".ol": 90365,
  "é²Ĩ": 121259,
  "Ġ*(*": 86724,
  "-the": 10603,
  "amentals": 77014,
  "ĠIM": 6517,
  "à¹ĥà¸ªà¹Ī": 129342,
  "COLOR": 30943,
  "Ġurine": 39235,
  "ï¬ħ": 148672,
  "Ġhygiene": 51956,
  "íĮŁ": 144892,
  "ĠÙĦ": 56794,
  ".bl": 10404,
  "Ġ))": 11985,
  "_RATIO": 65679,
  "çĬį": 120976,
  "Ġpests": 74956,
  "Spawn": 41005,
  "çĽĳçĭ±": 110189,
  "-income": 31097,
  "Ġenglish": 28963,
  ",-": 4999,
  "/service": 34186,
  "ĠÐŁÐ¾Ð»ÑĥÑĩ": 88933,
  "èĻº": 120084,
  "å®´ä¼ļ": 117750,
  "ĠisKindOfClass": 48511,
  "cast": 3829,
  "æ¾į": 121674,
  "å·²ç»ıå¼Ģå§ĭ": 109317,
  "Ġì¶": 36330,
  ".border": 22214,
  "Ëł": 150351,
  "Ð¸Ñħ": 66645,
  "ĠCORE": 50183,
  "`,Ċ": 12892,
  "Ġkotlinx": 27452,
  "EOS": 55940,
  "Ġpunishments": 89825,
  ".Dimension": 53234,
  "Ġcolumn": 3250,
  "è¦ģä¸įçĦ¶": 116673,
  "ÄŁi": 43807,
  "åıĹå®³èĢħ": 111586,
  "ĠSaving": 48438,
  "ĠValentine": 38769,
  "upply": 83923,
  "INGLE": 25696,
  "ERGY": 60441,
  "oral": 9819,
  "ãĢĤĊĊĊĊĊĊ": 74687,
  "Ġfz": 92649,
  "Ġadvocating": 58316,
  "BorderStyle": 34318,
  "FirstChild": 85661,
  "Ġcows": 45166,
  "Ġproceeding": 38447,
  "ĠDrugs": 50666,
  "ÛĨ": 145576,
  "Ð²Ð¾Ð»ÑĮ": 134875,
  ".prepend": 91901,
  "æĺ¯éŁ©åĽ½å¨±": 117963,
  "Threshold": 37841,
  "Opaque": 69398,
  "erialization": 50563,
  "çĳħ": 123124,
  "Ġdevs": 80069,
  "Ġcops": 34217,
  "ãĥĭãĥ¥ãĥ¼ãĤ¹": 134114,
  "éĴ»çłĶ": 116090,
  "sold": 62478,
  "(route": 31436,
  "çī¹èī²å°ıéķĩ": 116132,
  "ë´Ĭ": 149757,
  "Ġsax": 63008,
  "Ġ]]Ċ": 63040,
  "éĺ¶æ®µæĢ§": 111095,
  "Ġdenom": 49744,
  "æĤ£èĢħ": 101924,
  "ØµØ§Ø¯": 130248,
  ".Toggle": 80700,
  "Ġ×ĳ×ł×Ļ×Ļ×ª": 135548,
  "åĨľä¸ļå¤§åŃ¦": 117604,
  "×ŀ×ķ×ĵ×¢": 141826,
  "Ġssid": 96361,
  "_EXPORT": 20789,
  "Areas": 71237,
  "äººæ°Ķ": 105784,
  "vinces": 78565,
  "Valid": 4088,
  "YO": 56644,
  "[]": 1294,
  "ĠMobil": 69830,
  "empresa": 35838,
  ".pub": 47773,
  "à¸Ĺà¸µà¹Īà¸¡à¸µà¸Ħà¸§à¸²à¸¡": 137737,
  "ĠAJAX": 57316,
  "Ġironic": 58460,
  ".begin": 6848,
  "×Ļ×Ļ×¡": 134080,
  "Ġseated": 46313,
  ".correct": 81497,
  "Ġassistants": 56519,
  "_ADV": 74438,
  "expÃ©rience": 132808,
  "ĠWei": 52448,
  "Ġca": 2162,
  "ĠThrone": 90601,
  "EVENT": 37349,
  "urons": 53669,
  "_delivery": 50562,
  ".rest": 21398,
  ".$": 2418,
  "_WINDOW": 24780,
  "Ġsider": 86574,
  "Ġpearl": 69623,
  "uffer": 2040,
  ")s": 16466,
  "orre": 92433,
  "ãĤĴãģ¤ãģĳ": 133002,
  "ĠImage": 4654,
  "_counter": 15730,
  "ÑģÑĥ": 130382,
  "ĠAbrams": 74231,
  "Ġaccommodations": 54613,
  "å¤±ä¿¡": 113114,
  "Ø®ÙĬØ§Ø±Ø§Øª": 136900,
  "ë¯ľ": 150947,
  "Ġgá»ĵ": 130067,
  "ĠAPC": 86241,
  "(resources": 52607,
  "ĠBass": 35953,
  "Ġexcluded": 27444,
  "ĠReady": 30982,
  "ĠISIS": 22647,
  "Labor": 76533,
  "Ġth": 270,
  "Ġpartition": 16658,
  ".Up": 60828,
  "èĬĤ": 55502,
  "Ġticket": 11727,
  "Commercial": 59716,
  "ĠDaly": 94435,
  "ĠJosÃ©": 43265,
  "éĶ£": 115807,
  "ĠÐ·Ð½Ð°Ñİ": 137096,
  "åĲĦä¸ªæĸ¹éĿ¢": 117680,
  "Ġenqueue": 53757,
  "åĨĽéĺŁ": 105591,
  "Ġecosystem": 24982,
  "\\C": 23917,
  "ĠDV": 51244,
  ".router": 22125,
  "IXEL": 39787,
  "Ġquem": 57608,
  "éķ¿æľŁä»¥æĿ¥": 111366,
  "åĲ¼": 108953,
  "ç¥ŀéĢļ": 116515,
  "Ġkick": 10323,
  "ĠOx": 50615,
  "çĪĲ": 119271,
  "Ġreforms": 30243,
  "Ġpattern": 5383,
  "ÑģÐ¾ÑĤ": 134804,
  "ä¹ĭç§°": 113009,
  "Ġnationally": 39243,
  "End": 3727,
  "&r": 60617,
  "Ġcontraception": 71254,
  "::~": 14252,
  "å¤ļä¸ĩåħĥ": 111043,
  "çĽī": 120419,
  "UIApplicationDelegate": 92657,
  "ldap": 38665,
  ".bill": 91588,
  "lieÃŁ": 56400,
  "ãģ¾ãģĹãģŁãģĮ": 131274,
  "ä»ªåĻ¨": 106550,
  "ÙĪØ³Ø§Ø¦ÙĦ": 133257,
  "Ġrelegated": 86452,
  "ĠCAS": 41790,
  "æľ¬åľŁ": 105210,
  "Ġroutinely": 38976,
  "DELAY": 87991,
  "Ġeas": 2531,
  "å¨©": 103672,
  "áĳĭ": 148583,
  "Ġ×ľ×ļ": 128879,
  "Ġvarieties": 35580,
  "Ġreductions": 46211,
  "[\\": 26056,
  "íĶĮ": 131587,
  "ĉwin": 68452,
  "-k": 12646,
  "Ġdormant": 88360,
  "Ġrestraint": 58356,
  "_reload": 79405,
  "Ġpursuing": 33018,
  "éĶ¼": 123350,
  "ðŁĮ¡": 148100,
  "Ġ\">": 28957,
  "éģĵè·¯ä¸Ĭ": 108945,
  "Ġceremonies": 59183,
  ">>,Ċ": 61340,
  "/global": 38984,
  "Ġincompetent": 80812,
  "ĠCarr": 29374,
  "Ġsanta": 71751,
  "çľĭ": 50930,
  "è¡¨è¾¾": 102124,
  "Ġxáº¿p": 134143,
  "ãģ¦ãģıãĤĭ": 137097,
  "ĠSq": 64571,
  "moves": 66082,
  "ĠKeywords": 55695,
  "ady": 7604,
  "ëłľ": 149749,
  "Ġcardinal": 55880,
  "ĠØ¨Ø§": 82611,
  "inch": 36750,
  "çģĮ": 102526,
  "LDAP": 93497,
  "ĠcellFor": 40604,
  "Ġ\"[\"": 50681,
  "ĠChic": 70720,
  ".EqualTo": 56064,
  "å°ģéĿ¢": 112092,
  "_TRAN": 30967,
  "creds": 85734,
  "Ġcheeses": 97464,
  "Ġfaction": 36380,
  "è´¤": 104591,
  "ĠSimpleName": 40799,
  "_CODES": 41688,
  "orget": 55755,
  "Ø§Ø±ÙĬØ©": 127571,
  "_EFFECT": 55634,
  "â¼Ģ": 147488,
  "à²Ľ": 150436,
  "umping": 54332,
  "ĠHugo": 51094,
  "Char": 4768,
  "á¨¾": 148804,
  "å·²ç»ıæľī": 108489,
  "(non": 29191,
  ")animated": 50758,
  "ĠNaturally": 59742,
  "Ġwand": 28710,
  "Ġslightest": 59047,
  "ĠResponseEntity": 19803,
  "ÑĥÐ½Ð¸ÑĨÐ¸Ð¿Ð°Ð»ÑĮÐ½": 141809,
  "ðĲĮ": 124594,
  "Ġeat": 8180,
  "åį³æĺ¯": 109730,
  "ĠarrayList": 47400,
  "×ŀ×©×ŀ×¢×ķ×ª": 134076,
  "(application": 40201,
  "Ġfurry": 74419,
  "æĹ¶æĬ¥": 111839,
  ".Pre": 28770,
  "Ġ}čĊčĊ": 2553,
  "ç¢º": 100336,
  "Ġwartime": 86852,
  "Ġ<%=": 90194,
  "Ġbehavioural": 87879,
  "hot": 10622,
  "æĢİæł·": 102066,
  "*>(&": 66163,
  "Ġgenus": 63577,
  "short": 8676,
  "Ġepilepsy": 69555,
  "ï¼Ĳ": 26022,
  "ise": 1064,
  "_acl": 63692,
  "ĠtoArray": 78190,
  "Ġreinterpret": 25186,
  "Ġ×¤×¨×©×ª": 141045,
  "acciones": 97707,
  "Ġweighted": 36824,
  "persist": 39826,
  "()<<\"": 69757,
  "ĠìľĦíķ´": 130039,
  "ĠdÃ©cada": 137411,
  "ØªØ£ÙĥØ¯": 139956,
  "//čĊ": 14015,
  "êµ³": 144239,
  "odox": 30062,
  "rawler": 33369,
  "/random": 79442,
  "ĠMorg": 78060,
  "ĠsprzÄĻt": 136641,
  "Ġgathered": 20190,
  "Ġintestinal": 62800,
  "_managed": 79889,
  "ĠWorldwide": 51935,
  "ĠCuba": 31677,
  "ÙħØ²ÙĬØ¯": 137282,
  "è§Ĩè§ī": 104916,
  "Popup": 24381,
  "baar": 70217,
  "ĠhÃ³a": 128585,
  "CppI": 90196,
  "Ġvend": 18672,
  "çĿģ": 103396,
  "Ġ)}Ċ": 17566,
  "urrences": 33246,
  "(viewModel": 70463,
  "åĨ³å®ļäºĨ": 109604,
  "į°": 41902,
  "çĴŀ": 119057,
  "ĠFlam": 96857,
  "cratch": 86284,
  "Ġjourney": 11618,
  "Ġdigitally": 67778,
  "âĢĻa": 39653,
  "Ġcis": 66404,
  "ĠZot": 88824,
  "å¸¸å¹´": 109308,
  "æľīæĽ´å¥½çļĦ": 114189,
  "åĴĸåķ¡": 104602,
  "your": 21732,
  "@mail": 65862,
  "æĲŀ": 100460,
  "å®Ļ": 102591,
  "ëŃĺ": 144395,
  "elif": 12458,
  "_part": 10495,
  "dk": 7584,
  "æĿŃ": 101183,
  "Produ": 18510,
  "cpt": 97995,
  "à¨Ĳ": 150415,
  "ĠAdministrator": 28593,
  "çĭ¼": 104522,
  "Ġcontroversial": 20129,
  "éĶģ": 100504,
  "join": 5987,
  "æ·ĩ": 103822,
  "ustralia": 28039,
  "ðŁ¥ĵ": 148404,
  "Esp": 76954,
  "ĉbus": 92530,
  "Ġ×¤×ª×Ĺ": 136659,
  "ĉparent": 24804,
  "Ø¸ÙĦ": 130431,
  "âĦĹ": 145483,
  "Ø±Ø¶Ùī": 138984,
  "_GP": 85834,
  "Ġ#__": 96807,
  "Surv": 62343,
  "ties": 28546,
  "ðŁĮİ": 146249,
  "å°ıæĹ¶åīį": 110444,
  "ĠÃ©tÃ©": 23639,
  "-have": 68484,
  "enburg": 54385,
  "xes": 89674,
  "Ġhappened": 6932,
  "Scripts": 44942,
  "_ENTRIES": 87695,
  "èĲļ": 122765,
  "@SpringBootApplication": 62261,
  "à¸Ĺà¸µà¹Īà¸Ķà¸µà¸Ĺà¸µà¹Īà¸ªà¸¸à¸Ķ": 137472,
  "ĠÑĢÐµÐ°Ð»Ð¸Ð·Ð°ÑĨÐ¸": 139755,
  "ĠUIControl": 77904,
  "Graphics": 20656,
  "ĠèĩªåĬ¨çĶŁæĪĲ": 97028,
  "Ġdominant": 24456,
  "Ġcomprehensive": 15817,
  "stripe": 61233,
  "gradable": 77030,
  "Ġrelinqu": 84398,
  "Ġfruity": 91932,
  "@show": 90300,
  "çª": 90639,
  "Ġrouge": 83959,
  ")/(": 24254,
  "urga": 90776,
  "å½Ĵ": 100040,
  "trak": 70019,
  "à¥Ĳ": 146093,
  "b": 65,
  "Ú¨": 145838,
  "ä¹ĻèĤĿ": 116898,
  "claim": 7859,
  "Ġobsession": 48535,
  "ĠyerleÅŁ": 141421,
  ".getLast": 61049,
  "']\",": 74747,
  "ĠÐ¾ÑĤÐ´": 135982,
  ".exp": 13754,
  "ĠHari": 97445,
  "ĠkÄ±sa": 131370,
  "(jTextField": 90643,
  "-den": 96528,
  "registr": 48464,
  "_home": 21653,
  "Greater": 41366,
  "ðŁıŀ": 149188,
  "æķ´å½¢": 108698,
  "Ġsteep": 31266,
  "Ġpai": 60600,
  ".RESULT": 68382,
  "æĪĳå½ĵæĹ¶": 112898,
  "ĠAlberta": 32554,
  "ĠPhilips": 73503,
  "çĿ«": 103776,
  "_lng": 89680,
  "è¯¯": 29056,
  "amento": 10411,
  "è£³": 119468,
  "ĠÐ°ÐºÑĤÑĥÐ°Ð»ÑĮÐ½": 142992,
  ".cg": 51595,
  "_GRAY": 60516,
  "ä¸»æĮģäºº": 106040,
  ".outputs": 65716,
  "ĠjsonResponse": 90465,
  "ĠÏ": 17383,
  "Ġkidnapping": 61682,
  "Ġ******************************************************************************/ĊĊ": 93682,
  "×¤×©": 124721,
  "ĠìĦł": 129296,
  "å¹ª": 123546,
  "Ġ[]Ċ": 4167,
  "Ġrely": 17188,
  "pole": 68072,
  "Ġread": 1349,
  "Ġmalware": 39731,
  "ç¢£": 121395,
  "Ġrah": 141846,
  "ĠÐ¾ÑĤ": 20264,
  "ì¼Ļ": 151061,
  "(accounts": 91868,
  "åĽŀçŃĶ": 102104,
  "Ġprinting": 18484,
  "Ġdepartamento": 95889,
  "ï¬´": 148364,
  "ìļ©": 26699,
  "ĠSodium": 82441,
  "ëķĥ": 147590,
  "ĠCanvas": 25698,
  "åıĳå±ķåİĨç¨ĭ": 114849,
  "uj": 9635,
  "Ġquitting": 68084,
  "Ġadapters": 69025,
  "æĸĩæľ¬": 108704,
  "ĠÑģÑĥÐ´": 126869,
  "ĠEvolution": 37221,
  "DOCUMENT": 44097,
  "éĥĳ": 100778,
  "Saving": 43535,
  "alia": 18848,
  "'):Ċ": 11043,
  "éĢłä»·": 112171,
  "èĢ½è¯¯": 112287,
  "ĠBoca": 98557,
  "×Ĵ×ª": 130837,
  "à¸ķà¹Ī": 124171,
  "Ġhá»Ĺ": 129481,
  "trainer": 83776,
  "ĠBent": 40514,
  "Ð»ÑıÑĢ": 127406,
  "ÙĤÙĬØ§Ùħ": 127802,
  "ĠÙģÙĥØ±Ø©": 142139,
  "ĠSext": 66949,
  "ðĿĻº": 151578,
  "ØŃØ±Øµ": 137952,
  "ä½łçŁ¥éģĵ": 107733,
  "åºĹéĩĮ": 110328,
  "Ġlas": 5141,
  "éĩĩè®¿": 100888,
  ")t": 78105,
  "ĠELF": 72568,
  "ĉfwrite": 69166,
  "äººäººéĥ½": 112730,
  "Ġbasically": 13221,
  "ĠÐ²ÐµÐ´ÑĮ": 133820,
  "éļĲç§ģ": 107120,
  "ĠReduced": 79469,
  "ãĤ¢ãĤ¯ãĤ»ãĤ¹": 139651,
  "dens": 52221,
  "Half": 42627,
  "roduction": 16741,
  "Ġary": 72921,
  "esk": 66819,
  "Ð¾Ð±ÑĢÐ°Ð·": 128899,
  "ĠChancellor": 46963,
  "âĩª": 147353,
  "ULK": 68698,
  "FRAME": 54103,
  "Ġexpansion": 14461,
  "éĺ³åħī": 104166,
  "_Count": 50775,
  "ĠHulk": 60846,
  "untary": 58956,
  "_MetadataUsageId": 67031,
  "ãī²": 149070,
  "èĪªè¿Ĳ": 110372,
  "Ġcharter": 37024,
  "-learning": 70756,
  "é«ģ": 121892,
  "oger": 55440,
  "æĲĶ": 119426,
  "å¾®ç¬ĳ": 105626,
  "ä½ľãģ£ãģŁ": 141507,
  "ĠGarden": 19021,
  "æ²¡æľīä»»ä½ķ": 105283,
  "Ġshallow": 25600,
  "_hello": 96724,
  "_survey": 88345,
  "Ġtrain": 5426,
  "*(-": 34299,
  "_Draw": 69154,
  "ĠĠĠĠĠĠĠĠĠĠčĊ": 62217,
  "çł¬": 122609,
  "_READ": 13117,
  "Ġpellets": 77320,
  "Ġearnings": 23681,
  "åı£ãĤ³ãĥŁ": 130851,
  "çļĦåİŁåĽł": 104249,
  "Å±": 51259,
  "Ġdestabil": 71157,
  "Ġsage": 38261,
  "ĠPalm": 32478,
  "çĽ¸åħ³æĸ°éĹ»": 111555,
  "è¿¹è±¡": 110329,
  "ĠSEARCH": 49766,
  "å®ŀæĸ½": 100355,
  "Ġjp": 43571,
  "orderby": 45757,
  "åİŁæľīçļĦ": 110917,
  "Ð»ÑĮÑĤ": 52528,
  "ĠINSTALL": 79353,
  "!âĢĿĊĊ": 24727,
  "err": 615,
  "ëģ¼": 142063,
  "Ġ----------------------------------------------------------------------------": 23852,
  "Ġmolecules": 34615,
  "ĠLal": 83783,
  "ĠsÃłn": 136071,
  "/li": 88381,
  "ç¬ĳäºĨç¬ĳ": 113899,
  "UX": 13401,
  "âĪķ": 146577,
  "ðŁĺİ": 144848,
  "æľŁåĨħ": 101814,
  "fabric": 85154,
  "á¸°": 151423,
  "æĴ¸": 121554,
  "éĤ£å°±": 104971,
  "uent": 11680,
  "\"B": 63590,
  "Ġexcept": 3650,
  "ìĿį": 144257,
  "equal": 25795,
  "ĠÐĴÐ°Ð¼": 133535,
  "\"Do": 90624,
  "ĠIntelliJ": 94082,
  "ä¼¸": 100867,
  "Alternatively": 92014,
  "clarsimp": 78160,
  "_anchor": 56532,
  "Ġdiscrim": 14238,
  "ÙĥÙĩØ±Ø¨": 140608,
  "Mor": 41678,
  "_PROVIDER": 62542,
  "uncture": 62874,
  "å¼ĢåĲ¯": 102296,
  "ĠSMART": 79608,
  "(vector": 19066,
  "Ġthiá»ĩn": 130509,
  "ĠMonths": 51346,
  "quant": 30448,
  "ç¦ıåĪ©": 105085,
  "æĻ¶": 100550,
  "ĠYears": 22315,
  "essage": 801,
  "çĽ®çļĦæĺ¯": 108765,
  "×Ĳ×ķ×§×ĺ×ķ×ĳ×¨": 141909,
  "ĠMoÅ¼na": 141417,
  "Ġ'='": 40554,
  "ĠMut": 31228,
  "lastic": 51179,
  "Ġhairy": 50033,
  "æ²¡æĥ³åĪ°": 104791,
  "ĠdifficultÃ©": 142370,
  "ÚĴ": 148046,
  "ÄŁu": 124547,
  "oday": 6289,
  "Ġattraction": 32364,
  "ĠimageName": 66073,
  "ĠÙħÙĨØ²ÙĦ": 138594,
  "æĻ¢": 122756,
  "(head": 25340,
  "ĠDatabase": 9994,
  "áħ": 124052,
  "Blockly": 41750,
  "ä½ĵç³»": 100365,
  "åıĺäºĨ": 112346,
  "ĠYa": 39384,
  "anghai": 30070,
  "ĠRa": 18482,
  "ä¸Ģç¨®": 107297,
  "ä¸įåĲĥ": 110668,
  "Ġaddition": 5256,
  "pred": 23464,
  "ĠMell": 60185,
  "ÑīÐ¸Ð½": 127058,
  "à²¤": 150437,
  "ĠAeros": 63150,
  "Ġwounded": 27493,
  "Components": 10443,
  "clinic": 89265,
  "EEE": 32837,
  "è®µ": 119644,
  "×ŀ×¨×Ķ": 138093,
  "Ġtriples": 88561,
  "ĠGameController": 96896,
  "ä¸Ńæŀ¢": 116124,
[...]
